{
  "version": "1.0",
  "truncation": null,
  "padding": null,
  "added_tokens": [
    {
      "id": 0,
      "content": "<unk>",
      "single_word": false,
      "lstrip": false,
      "rstrip": false,
      "normalized": false,
      "special": true
    },
    {
      "id": 1,
      "content": "<bos>",
      "single_word": false,
      "lstrip": false,
      "rstrip": false,
      "normalized": false,
      "special": true
    },
    {
      "id": 2,
      "content": "<eos>",
      "single_word": false,
      "lstrip": false,
      "rstrip": false,
      "normalized": false,
      "special": true
    },
    {
      "id": 3,
      "content": "<pad>",
      "single_word": false,
      "lstrip": false,
      "rstrip": false,
      "normalized": false,
      "special": true
    },
    {
      "id": 4,
      "content": "<mask>",
      "single_word": false,
      "lstrip": false,
      "rstrip": false,
      "normalized": false,
      "special": true
    },
    {
      "id": 5,
      "content": "<|system|>",
      "single_word": false,
      "lstrip": false,
      "rstrip": false,
      "normalized": false,
      "special": true
    },
    {
      "id": 6,
      "content": "<|user|>",
      "single_word": false,
      "lstrip": false,
      "rstrip": false,
      "normalized": false,
      "special": true
    },
    {
      "id": 7,
      "content": "<|assistant|>",
      "single_word": false,
      "lstrip": false,
      "rstrip": false,
      "normalized": false,
      "special": true
    },
    {
      "id": 8,
      "content": "<|begin_of_text|>",
      "single_word": false,
      "lstrip": false,
      "rstrip": false,
      "normalized": false,
      "special": true
    },
    {
      "id": 9,
      "content": "<|end_of_text|>",
      "single_word": false,
      "lstrip": false,
      "rstrip": false,
      "normalized": false,
      "special": true
    },
    {
      "id": 10,
      "content": "<|start_header|>",
      "single_word": false,
      "lstrip": false,
      "rstrip": false,
      "normalized": false,
      "special": true
    },
    {
      "id": 11,
      "content": "<|end_header|>",
      "single_word": false,
      "lstrip": false,
      "rstrip": false,
      "normalized": false,
      "special": true
    },
    {
      "id": 12,
      "content": "<|thinking|>",
      "single_word": false,
      "lstrip": false,
      "rstrip": false,
      "normalized": false,
      "special": true
    },
    {
      "id": 13,
      "content": "<|end_thinking|>",
      "single_word": false,
      "lstrip": false,
      "rstrip": false,
      "normalized": false,
      "special": true
    },
    {
      "id": 14,
      "content": "<|reasoning|>",
      "single_word": false,
      "lstrip": false,
      "rstrip": false,
      "normalized": false,
      "special": true
    },
    {
      "id": 15,
      "content": "<|end_reasoning|>",
      "single_word": false,
      "lstrip": false,
      "rstrip": false,
      "normalized": false,
      "special": true
    },
    {
      "id": 16,
      "content": "<|reflection|>",
      "single_word": false,
      "lstrip": false,
      "rstrip": false,
      "normalized": false,
      "special": true
    },
    {
      "id": 17,
      "content": "<|end_reflection|>",
      "single_word": false,
      "lstrip": false,
      "rstrip": false,
      "normalized": false,
      "special": true
    },
    {
      "id": 18,
      "content": "<|tool_call|>",
      "single_word": false,
      "lstrip": false,
      "rstrip": false,
      "normalized": false,
      "special": true
    },
    {
      "id": 19,
      "content": "<|end_tool_call|>",
      "single_word": false,
      "lstrip": false,
      "rstrip": false,
      "normalized": false,
      "special": true
    },
    {
      "id": 20,
      "content": "<|tool_result|>",
      "single_word": false,
      "lstrip": false,
      "rstrip": false,
      "normalized": false,
      "special": true
    },
    {
      "id": 21,
      "content": "<|end_tool_result|>",
      "single_word": false,
      "lstrip": false,
      "rstrip": false,
      "normalized": false,
      "special": true
    },
    {
      "id": 22,
      "content": "<|function|>",
      "single_word": false,
      "lstrip": false,
      "rstrip": false,
      "normalized": false,
      "special": true
    },
    {
      "id": 23,
      "content": "<|end_function|>",
      "single_word": false,
      "lstrip": false,
      "rstrip": false,
      "normalized": false,
      "special": true
    },
    {
      "id": 24,
      "content": "<|parameters|>",
      "single_word": false,
      "lstrip": false,
      "rstrip": false,
      "normalized": false,
      "special": true
    },
    {
      "id": 25,
      "content": "<|end_parameters|>",
      "single_word": false,
      "lstrip": false,
      "rstrip": false,
      "normalized": false,
      "special": true
    },
    {
      "id": 26,
      "content": "<|code|>",
      "single_word": false,
      "lstrip": false,
      "rstrip": false,
      "normalized": false,
      "special": true
    },
    {
      "id": 27,
      "content": "<|end_code|>",
      "single_word": false,
      "lstrip": false,
      "rstrip": false,
      "normalized": false,
      "special": true
    },
    {
      "id": 28,
      "content": "<|python|>",
      "single_word": false,
      "lstrip": false,
      "rstrip": false,
      "normalized": false,
      "special": true
    },
    {
      "id": 29,
      "content": "<|end_python|>",
      "single_word": false,
      "lstrip": false,
      "rstrip": false,
      "normalized": false,
      "special": true
    },
    {
      "id": 30,
      "content": "<|bash|>",
      "single_word": false,
      "lstrip": false,
      "rstrip": false,
      "normalized": false,
      "special": true
    },
    {
      "id": 31,
      "content": "<|end_bash|>",
      "single_word": false,
      "lstrip": false,
      "rstrip": false,
      "normalized": false,
      "special": true
    },
    {
      "id": 32,
      "content": "<|output|>",
      "single_word": false,
      "lstrip": false,
      "rstrip": false,
      "normalized": false,
      "special": true
    },
    {
      "id": 33,
      "content": "<|end_output|>",
      "single_word": false,
      "lstrip": false,
      "rstrip": false,
      "normalized": false,
      "special": true
    },
    {
      "id": 34,
      "content": "<|json|>",
      "single_word": false,
      "lstrip": false,
      "rstrip": false,
      "normalized": false,
      "special": true
    },
    {
      "id": 35,
      "content": "<|end_json|>",
      "single_word": false,
      "lstrip": false,
      "rstrip": false,
      "normalized": false,
      "special": true
    },
    {
      "id": 36,
      "content": "<|xml|>",
      "single_word": false,
      "lstrip": false,
      "rstrip": false,
      "normalized": false,
      "special": true
    },
    {
      "id": 37,
      "content": "<|end_xml|>",
      "single_word": false,
      "lstrip": false,
      "rstrip": false,
      "normalized": false,
      "special": true
    },
    {
      "id": 38,
      "content": "<|markdown|>",
      "single_word": false,
      "lstrip": false,
      "rstrip": false,
      "normalized": false,
      "special": true
    },
    {
      "id": 39,
      "content": "<|end_markdown|>",
      "single_word": false,
      "lstrip": false,
      "rstrip": false,
      "normalized": false,
      "special": true
    },
    {
      "id": 40,
      "content": "<|stop|>",
      "single_word": false,
      "lstrip": false,
      "rstrip": false,
      "normalized": false,
      "special": true
    },
    {
      "id": 41,
      "content": "<|continue|>",
      "single_word": false,
      "lstrip": false,
      "rstrip": false,
      "normalized": false,
      "special": true
    },
    {
      "id": 42,
      "content": "<|separator|>",
      "single_word": false,
      "lstrip": false,
      "rstrip": false,
      "normalized": false,
      "special": true
    },
    {
      "id": 43,
      "content": "<|newline|>",
      "single_word": false,
      "lstrip": false,
      "rstrip": false,
      "normalized": false,
      "special": true
    },
    {
      "id": 44,
      "content": "<|image|>",
      "single_word": false,
      "lstrip": false,
      "rstrip": false,
      "normalized": false,
      "special": true
    },
    {
      "id": 45,
      "content": "<|end_image|>",
      "single_word": false,
      "lstrip": false,
      "rstrip": false,
      "normalized": false,
      "special": true
    },
    {
      "id": 46,
      "content": "<|audio|>",
      "single_word": false,
      "lstrip": false,
      "rstrip": false,
      "normalized": false,
      "special": true
    },
    {
      "id": 47,
      "content": "<|end_audio|>",
      "single_word": false,
      "lstrip": false,
      "rstrip": false,
      "normalized": false,
      "special": true
    },
    {
      "id": 48,
      "content": "<|reserved_1|>",
      "single_word": false,
      "lstrip": false,
      "rstrip": false,
      "normalized": false,
      "special": true
    },
    {
      "id": 49,
      "content": "<|reserved_2|>",
      "single_word": false,
      "lstrip": false,
      "rstrip": false,
      "normalized": false,
      "special": true
    },
    {
      "id": 50,
      "content": "<|reserved_3|>",
      "single_word": false,
      "lstrip": false,
      "rstrip": false,
      "normalized": false,
      "special": true
    },
    {
      "id": 51,
      "content": "<|reserved_4|>",
      "single_word": false,
      "lstrip": false,
      "rstrip": false,
      "normalized": false,
      "special": true
    },
    {
      "id": 52,
      "content": "<|reserved_5|>",
      "single_word": false,
      "lstrip": false,
      "rstrip": false,
      "normalized": false,
      "special": true
    }
  ],
  "normalizer": {
    "type": "Sequence",
    "normalizers": []
  },
  "pre_tokenizer": {
    "type": "ByteLevel",
    "add_prefix_space": false,
    "trim_offsets": true,
    "use_regex": true
  },
  "post_processor": {
    "type": "ByteLevel",
    "add_prefix_space": true,
    "trim_offsets": false,
    "use_regex": true
  },
  "decoder": {
    "type": "ByteLevel",
    "add_prefix_space": true,
    "trim_offsets": true,
    "use_regex": true
  },
  "model": {
    "type": "BPE",
    "dropout": null,
    "unk_token": "<unk>",
    "continuing_subword_prefix": null,
    "end_of_word_suffix": null,
    "fuse_unk": false,
    "byte_fallback": false,
    "ignore_merges": false,
    "vocab": {
      "<unk>": 0,
      "<bos>": 1,
      "<eos>": 2,
      "<pad>": 3,
      "<mask>": 4,
      "<|system|>": 5,
      "<|user|>": 6,
      "<|assistant|>": 7,
      "<|begin_of_text|>": 8,
      "<|end_of_text|>": 9,
      "<|start_header|>": 10,
      "<|end_header|>": 11,
      "<|thinking|>": 12,
      "<|end_thinking|>": 13,
      "<|reasoning|>": 14,
      "<|end_reasoning|>": 15,
      "<|reflection|>": 16,
      "<|end_reflection|>": 17,
      "<|tool_call|>": 18,
      "<|end_tool_call|>": 19,
      "<|tool_result|>": 20,
      "<|end_tool_result|>": 21,
      "<|function|>": 22,
      "<|end_function|>": 23,
      "<|parameters|>": 24,
      "<|end_parameters|>": 25,
      "<|code|>": 26,
      "<|end_code|>": 27,
      "<|python|>": 28,
      "<|end_python|>": 29,
      "<|bash|>": 30,
      "<|end_bash|>": 31,
      "<|output|>": 32,
      "<|end_output|>": 33,
      "<|json|>": 34,
      "<|end_json|>": 35,
      "<|xml|>": 36,
      "<|end_xml|>": 37,
      "<|markdown|>": 38,
      "<|end_markdown|>": 39,
      "<|stop|>": 40,
      "<|continue|>": 41,
      "<|separator|>": 42,
      "<|newline|>": 43,
      "<|image|>": 44,
      "<|end_image|>": 45,
      "<|audio|>": 46,
      "<|end_audio|>": 47,
      "<|reserved_1|>": 48,
      "<|reserved_2|>": 49,
      "<|reserved_3|>": 50,
      "<|reserved_4|>": 51,
      "<|reserved_5|>": 52,
      "!": 53,
      "\"": 54,
      "#": 55,
      "$": 56,
      "%": 57,
      "&": 58,
      "'": 59,
      "(": 60,
      ")": 61,
      "*": 62,
      "+": 63,
      ",": 64,
      "-": 65,
      ".": 66,
      "/": 67,
      "0": 68,
      "1": 69,
      "2": 70,
      "3": 71,
      "4": 72,
      "5": 73,
      "6": 74,
      "7": 75,
      "8": 76,
      "9": 77,
      ":": 78,
      ";": 79,
      "<": 80,
      "=": 81,
      ">": 82,
      "?": 83,
      "@": 84,
      "A": 85,
      "B": 86,
      "C": 87,
      "D": 88,
      "E": 89,
      "F": 90,
      "G": 91,
      "H": 92,
      "I": 93,
      "J": 94,
      "K": 95,
      "L": 96,
      "M": 97,
      "N": 98,
      "O": 99,
      "P": 100,
      "Q": 101,
      "R": 102,
      "S": 103,
      "T": 104,
      "U": 105,
      "V": 106,
      "W": 107,
      "X": 108,
      "Y": 109,
      "Z": 110,
      "[": 111,
      "\\": 112,
      "]": 113,
      "^": 114,
      "_": 115,
      "`": 116,
      "a": 117,
      "b": 118,
      "c": 119,
      "d": 120,
      "e": 121,
      "f": 122,
      "g": 123,
      "h": 124,
      "i": 125,
      "j": 126,
      "k": 127,
      "l": 128,
      "m": 129,
      "n": 130,
      "o": 131,
      "p": 132,
      "q": 133,
      "r": 134,
      "s": 135,
      "t": 136,
      "u": 137,
      "v": 138,
      "w": 139,
      "x": 140,
      "y": 141,
      "z": 142,
      "{": 143,
      "|": 144,
      "}": 145,
      "~": 146,
      "¡": 147,
      "¢": 148,
      "£": 149,
      "¤": 150,
      "¥": 151,
      "¦": 152,
      "§": 153,
      "¨": 154,
      "©": 155,
      "ª": 156,
      "«": 157,
      "¬": 158,
      "®": 159,
      "¯": 160,
      "°": 161,
      "±": 162,
      "²": 163,
      "³": 164,
      "´": 165,
      "µ": 166,
      "¶": 167,
      "·": 168,
      "¸": 169,
      "¹": 170,
      "º": 171,
      "»": 172,
      "¼": 173,
      "½": 174,
      "¾": 175,
      "¿": 176,
      "À": 177,
      "Á": 178,
      "Â": 179,
      "Ã": 180,
      "Ä": 181,
      "Å": 182,
      "Æ": 183,
      "Ç": 184,
      "È": 185,
      "É": 186,
      "Ê": 187,
      "Ë": 188,
      "Ì": 189,
      "Í": 190,
      "Î": 191,
      "Ï": 192,
      "Ð": 193,
      "Ñ": 194,
      "Ò": 195,
      "Ó": 196,
      "Ô": 197,
      "Õ": 198,
      "Ö": 199,
      "×": 200,
      "Ø": 201,
      "Ù": 202,
      "Ú": 203,
      "Û": 204,
      "Ü": 205,
      "Ý": 206,
      "Þ": 207,
      "ß": 208,
      "à": 209,
      "á": 210,
      "â": 211,
      "ã": 212,
      "ä": 213,
      "å": 214,
      "æ": 215,
      "ç": 216,
      "è": 217,
      "é": 218,
      "ê": 219,
      "ë": 220,
      "ì": 221,
      "í": 222,
      "î": 223,
      "ï": 224,
      "ð": 225,
      "ñ": 226,
      "ò": 227,
      "ó": 228,
      "ô": 229,
      "õ": 230,
      "ö": 231,
      "÷": 232,
      "ø": 233,
      "ù": 234,
      "ú": 235,
      "û": 236,
      "ü": 237,
      "ý": 238,
      "þ": 239,
      "ÿ": 240,
      "Ā": 241,
      "ā": 242,
      "Ă": 243,
      "ă": 244,
      "Ą": 245,
      "ą": 246,
      "Ć": 247,
      "ć": 248,
      "Ĉ": 249,
      "ĉ": 250,
      "Ċ": 251,
      "ċ": 252,
      "Č": 253,
      "č": 254,
      "Ď": 255,
      "ď": 256,
      "Đ": 257,
      "đ": 258,
      "Ē": 259,
      "ē": 260,
      "Ĕ": 261,
      "ĕ": 262,
      "Ė": 263,
      "ė": 264,
      "Ę": 265,
      "ę": 266,
      "Ě": 267,
      "ě": 268,
      "Ĝ": 269,
      "ĝ": 270,
      "Ğ": 271,
      "ğ": 272,
      "Ġ": 273,
      "ġ": 274,
      "Ģ": 275,
      "ģ": 276,
      "Ĥ": 277,
      "ĥ": 278,
      "Ħ": 279,
      "ħ": 280,
      "Ĩ": 281,
      "ĩ": 282,
      "Ī": 283,
      "ī": 284,
      "Ĭ": 285,
      "ĭ": 286,
      "Į": 287,
      "į": 288,
      "İ": 289,
      "ı": 290,
      "Ĳ": 291,
      "ĳ": 292,
      "Ĵ": 293,
      "ĵ": 294,
      "Ķ": 295,
      "ķ": 296,
      "ĸ": 297,
      "Ĺ": 298,
      "ĺ": 299,
      "Ļ": 300,
      "ļ": 301,
      "Ľ": 302,
      "ľ": 303,
      "Ŀ": 304,
      "ŀ": 305,
      "Ł": 306,
      "ł": 307,
      "Ń": 308,
      "Ġt": 309,
      "he": 310,
      "Ġa": 311,
      "in": 312,
      "Ġthe": 313,
      "re": 314,
      "ĠĠ": 315,
      "on": 316,
      "er": 317,
      "at": 318,
      "Ġs": 319,
      "Ġo": 320,
      "Ġc": 321,
      "en": 322,
      "is": 323,
      "es": 324,
      "Ġw": 325,
      "nd": 326,
      "it": 327,
      "or": 328,
      "al": 329,
      "Ġf": 330,
      "Ġp": 331,
      "Ġof": 332,
      "an": 333,
      "Ġb": 334,
      "ed": 335,
      "ing": 336,
      "Ġin": 337,
      "ion": 338,
      "ar": 339,
      "Ġm": 340,
      "Ġand": 341,
      "Ġto": 342,
      "Ġd": 343,
      "ro": 344,
      "ic": 345,
      "le": 346,
      "ou": 347,
      "ĠĠĠĠ": 348,
      "as": 349,
      "ent": 350,
      "Ġe": 351,
      "ct": 352,
      "Ġth": 353,
      "Ġh": 354,
      "Ġn": 355,
      "Ġre": 356,
      "Ġis": 357,
      "Ġl": 358,
      "ve": 359,
      "st": 360,
      "il": 361,
      "om": 362,
      "et": 363,
      "ĠT": 364,
      "im": 365,
      "ol": 366,
      "ra": 367,
      "Ġ=": 368,
      "ation": 369,
      "ĠĠĠ": 370,
      "Ġg": 371,
      "ce": 372,
      "se": 373,
      "ly": 374,
      "Ġ1": 375,
      "ut": 376,
      "id": 377,
      "ot": 378,
      "Ġbe": 379,
      "Ġfor": 380,
      "ur": 381,
      "âĢ": 382,
      "ul": 383,
      "ow": 384,
      "ig": 385,
      "ĠA": 386,
      "Ġu": 387,
      "ir": 388,
      "Ġst": 389,
      "ch": 390,
      "Ġthat": 391,
      "Ġ(": 392,
      "ver": 393,
      "ĠS": 394,
      "am": 395,
      "um": 396,
      "ĠC": 397,
      "Ġon": 398,
      "if": 399,
      "Ġas": 400,
      "ĠThe": 401,
      "el": 402,
      "Ġcon": 403,
      "ĠI": 404,
      "qu": 405,
      "ith": 406,
      "Ġpro": 407,
      "Ġan": 408,
      "ate": 409,
      "ad": 410,
      "Ġare": 411,
      "ĊĠĠĠĠ": 412,
      "ay": 413,
      "Ġwe": 414,
      "Ġy": 415,
      "her": 416,
      "ist": 417,
      "Ġwith": 418,
      "Ġit": 419,
      "ers": 420,
      "Ġ2": 421,
      "Ġwh": 422,
      "iv": 423,
      "ge": 424,
      "od": 425,
      "Ġal": 426,
      "Ġor": 427,
      "Ġde": 428,
      "Ġex": 429,
      "Ġv": 430,
      "Ġ-": 431,
      "res": 432,
      "th": 433,
      "ĠP": 434,
      "est": 435,
      "ab": 436,
      "pe": 437,
      "ĊĠĠĠ": 438,
      "ies": 439,
      "Ġcan": 440,
      "nt": 441,
      "ity": 442,
      "os": 443,
      "ment": 444,
      "Ġby": 445,
      "us": 446,
      "ive": 447,
      "ĠM": 448,
      "and": 449,
      "ore": 450,
      "Ġ+": 451,
      "ĠB": 452,
      "rom": 453,
      "ess": 454,
      "op": 455,
      "Ġcom": 456,
      "ĊĠĠĠĠĠĠĠ": 457,
      "Ġsu": 458,
      "ter": 459,
      "ac": 460,
      "ri": 461,
      "igh": 462,
      "Ġhe": 463,
      "ain": 464,
      "00": 465,
      "âĢĻ": 466,
      "The": 467,
      "ĠR": 468,
      "Ġch": 469,
      "ke": 470,
      "te": 471,
      "Ġwas": 472,
      "Ġr": 473,
      "ĠE": 474,
      "ant": 475,
      "pp": 476,
      "ill": 477,
      "ial": 478,
      "ction": 479,
      "ort": 480,
      "ld": 481,
      "ĠH": 482,
      "ĠF": 483,
      "Ġfrom": 484,
      "Ġyou": 485,
      "Ġse": 486,
      "ĠW": 487,
      "ud": 488,
      "Ġne": 489,
      "oc": 490,
      "##": 491,
      "Ġat": 492,
      "un": 493,
      "Ġha": 494,
      "em": 495,
      "Ġle": 496,
      "ĠD": 497,
      "**": 498,
      "Ġ$": 499,
      "pl": 500,
      "Ġ3": 501,
      "ight": 502,
      "Ġnot": 503,
      "Ġtheir": 504,
      "Ġ\\": 505,
      "art": 506,
      "ĠN": 507,
      "ure": 508,
      "pt": 509,
      "fe": 510,
      "Ġen": 511,
      "ult": 512,
      "Ġhave": 513,
      "rou": 514,
      "ich": 515,
      "ical": 516,
      "Ġim": 517,
      "Ġus": 518,
      "ĠL": 519,
      "all": 520,
      "red": 521,
      "Ġsh": 522,
      "ine": 523,
      "ĠG": 524,
      "umb": 525,
      "Ġthis": 526,
      "iz": 527,
      "\"\"": 528,
      "ind": 529,
      "Ġk": 530,
      "ple": 531,
      "ĠâĢ": 532,
      "ther": 533,
      "og": 534,
      "ble": 535,
      "per": 536,
      "Ġwor": 537,
      "Ġpl": 538,
      "ue": 539,
      "age": 540,
      "Ġwhe": 541,
      "ans": 542,
      "Ġwhich": 543,
      "ide": 544,
      "act": 545,
      "ould": 546,
      "gh": 547,
      "Ġ4": 548,
      "int": 549,
      "ions": 550,
      "ations": 551,
      "ated": 552,
      "ag": 553,
      "Ġthey": 554,
      "ome": 555,
      "Ġint": 556,
      "end": 557,
      "ame": 558,
      "Ġnumb": 559,
      "Ġres": 560,
      "Ġ0": 561,
      "ost": 562,
      "our": 563,
      "cl": 564,
      "ance": 565,
      "ass": 566,
      "ard": 567,
      "ach": 568,
      "Ġab": 569,
      "du": 570,
      "out": 571,
      "ak": 572,
      "Ġx": 573,
      "ous": 574,
      "ime": 575,
      "Ġad": 576,
      "Ġwere": 577,
      "Ġ5": 578,
      "Ġall": 579,
      "his": 580,
      "ang": 581,
      "ents": 582,
      "ild": 583,
      "ren": 584,
      "ĠU": 585,
      "ong": 586,
      "ast": 587,
      "ĠO": 588,
      "ary": 589,
      "so": 590,
      "vel": 591,
      "ip": 592,
      "ust": 593,
      "ence": 594,
      "cc": 595,
      "ell": 596,
      "orm": 597,
      "Ġcont": 598,
      "ĊĠĠĠĠĠĠĠĠ": 599,
      "ep": 600,
      "Ġar": 601,
      "Ġequ": 602,
      "Ġcl": 603,
      "ress": 604,
      "Ġme": 605,
      "ap": 606,
      "Ġimp": 607,
      "rac": 608,
      "Ġmore": 609,
      "rent": 610,
      "Ġhas": 611,
      "Ġother": 612,
      "'s": 613,
      "Ġalso": 614,
      "Ġper": 615,
      "Ġdis": 616,
      "ount": 617,
      "ear": 618,
      "Ġun": 619,
      "able": 620,
      "ĠIn": 621,
      "ile": 622,
      "ie": 623,
      "ater": 624,
      "ition": 625,
      "Ġro": 626,
      "ĠJ": 627,
      "ks": 628,
      "ign": 629,
      "one": 630,
      "âĢĿ": 631,
      "ual": 632,
      "ect": 633,
      "Ġone": 634,
      "ric": 635,
      "ru": 636,
      "urn": 637,
      "av": 638,
      "Ġbut": 639,
      "ry": 640,
      "Ġman": 641,
      "Ġnumber": 642,
      "rit": 643,
      "Ġif": 644,
      "Ġthem": 645,
      "ace": 646,
      "Ġform": 647,
      "ood": 648,
      "cul": 649,
      "Ġev": 650,
      "ake": 651,
      "ors": 652,
      "ia": 653,
      "Ġdo": 654,
      "Ġte": 655,
      "Ġ*": 656,
      "ire": 657,
      "Ġspe": 658,
      "erm": 659,
      "Ġdif": 660,
      "Ġpart": 661,
      "Ġ6": 662,
      "con": 663,
      "ase": 664,
      "Ġtw": 665,
      "ath": 666,
      "ces": 667,
      "Ġout": 668,
      "Ġwill": 669,
      "ory": 670,
      "Ġits": 671,
      "Ġqu": 672,
      "Ġj": 673,
      "ose": 674,
      "ĠThis": 675,
      "ates": 676,
      "ound": 677,
      "Ġsp": 678,
      "ub": 679,
      "ĠâĢľ": 680,
      "ree": 681,
      "ord": 682,
      "are": 683,
      "ens": 684,
      "ack": 685,
      "Ġpe": 686,
      "ish": 687,
      "Ġcomm": 688,
      "low": 689,
      "Ġ#": 690,
      "Ġval": 691,
      "Ġstud": 692,
      "nder": 693,
      "Ġbec": 694,
      "Ġhis": 695,
      "now": 696,
      "Ġinto": 697,
      "Ġtime": 698,
      "Ġapp": 699,
      "we": 700,
      "Ġ|": 701,
      "Ġso": 702,
      "Ġbet": 703,
      "ution": 704,
      "Ġcomp": 705,
      "au": 706,
      "\"\"\"": 707,
      "}{": 708,
      "Ġsy": 709,
      "irst": 710,
      "Ġtwo": 711,
      "ĠIt": 712,
      "Ġsol": 713,
      ").": 714,
      "ice": 715,
      "ph": 716,
      "alcul": 717,
      "Ġthese": 718,
      "Ġpr": 719,
      "ef": 720,
      "ike": 721,
      "Ġ19": 722,
      "Ġwho": 723,
      "ĊĠĠĠĠĠĠĠĠĠĠĠ": 724,
      "les": 725,
      "frac": 726,
      "reat": 727,
      "Ġabout": 728,
      "ian": 729,
      "Ġ\"\"\"": 730,
      "Ġthan": 731,
      "Ġpo": 732,
      "very": 733,
      "Ġ/": 734,
      "ĠV": 735,
      "Ġ\"": 736,
      "Ġra": 737,
      "Ġfe": 738,
      "):": 739,
      "Ġup": 740,
      "ific": 741,
      "Ġuse": 742,
      "Ġdiffe": 743,
      "ople": 744,
      "Ġ**": 745,
      "Ġchild": 746,
      "Ġfind": 747,
      "ci": 748,
      "Ġtra": 749,
      "Ġyour": 750,
      "form": 751,
      "ative": 752,
      "rough": 753,
      "Ġwhen": 754,
      "Ġcol": 755,
      "ays": 756,
      "),": 757,
      "ities": 758,
      "Ġhad": 759,
      "Ġneed": 760,
      "Ġsuch": 761,
      "iven": 762,
      "Ġthere": 763,
      "ok": 764,
      "Ġrel": 765,
      "Ġtr": 766,
      "ite": 767,
      "ari": 768,
      "blem": 769,
      "xt": 770,
      "ject": 771,
      "ings": 772,
      "ne": 773,
      "ata": 774,
      "Ġunder": 775,
      "Ġyear": 776,
      "Ġind": 777,
      "ĠK": 778,
      "ict": 779,
      "Ġem": 780,
      "Ġhow": 781,
      "Ġpos": 782,
      "sel": 783,
      "Ġ10": 784,
      "clud": 785,
      "rib": 786,
      "ĠSt": 787,
      "Ġover": 788,
      "Ġgo": 789,
      "Ġpeople": 790,
      "Ġcons": 791,
      "Ġwork": 792,
      "Ġknow": 793,
      "Ġpre": 794,
      "ween": 795,
      "Ġco": 796,
      "ĠCh": 797,
      "cre": 798,
      "Ġwould": 799,
      "ample": 800,
      "Ġfirst": 801,
      "ility": 802,
      "Ġ7": 803,
      "Ġsome": 804,
      "oth": 805,
      "Ġexp": 806,
      "ft": 807,
      "Ġbetween": 808,
      "Ġhel": 809,
      "Ġwhere": 810,
      "ĊĊĠĠĠ": 811,
      "Ġag": 812,
      "arn": 813,
      "ail": 814,
      "Ġ8": 815,
      "ating": 816,
      "ange": 817,
      "Ġob": 818,
      "ove": 819,
      "unction": 820,
      "Ġeach": 821,
      "###": 822,
      "Ġlike": 823,
      "Ġprov": 824,
      "Ġâ": 825,
      "ds": 826,
      "Ġget": 827,
      "Ġstr": 828,
      "round": 829,
      "fect": 830,
      "erv": 831,
      "Ġhelp": 832,
      "cess": 833,
      "ff": 834,
      "Ġ20": 835,
      "ib": 836,
      "ments": 837,
      "ons": 838,
      "Ġbeen": 839,
      "**:": 840,
      "Ġinter": 841,
      "Ġmay": 842,
      "ever": 843,
      "row": 844,
      "uring": 845,
      "als": 846,
      "Ġused": 847,
      "Ġimport": 848,
      "Ġinclud": 849,
      "Ġact": 850,
      "ally": 851,
      "vers": 852,
      "ough": 853,
      "hat": 854,
      "ause": 855,
      "Ġmany": 856,
      "Ġnew": 857,
      "Ġspec": 858,
      "Ġ9": 859,
      "Ġrep": 860,
      "ues": 861,
      "Ġdist": 862,
      "Ġdef": 863,
      "elf": 864,
      "cept": 865,
      "its": 866,
      "ram": 867,
      "Ġret": 868,
      "aw": 869,
      "Ġsub": 870,
      "lo": 871,
      "stem": 872,
      "Ġrec": 873,
      "Ġmost": 874,
      "Ġset": 875,
      "ert": 876,
      "In": 877,
      "Ġdes": 878,
      "Ġthrough": 879,
      "lect": 880,
      "Ġmod": 881,
      "ys": 882,
      "velop": 883,
      "Ġproblem": 884,
      "mer": 885,
      "Ġaf": 886,
      "eth": 887,
      "ize": 888,
      "Ġdifferent": 889,
      "ract": 890,
      "ower": 891,
      "Ġpol": 892,
      "Ġinte": 893,
      "Ġacc": 894,
      "Ġpoint": 895,
      "ible": 896,
      "ll": 897,
      "eng": 898,
      "Ġam": 899,
      "Ġself": 900,
      "str": 901,
      "Ġrem": 902,
      "Ġfunction": 903,
      "000": 904,
      "Ġonly": 905,
      "Ġgen": 906,
      "Ġvari": 907,
      "ular": 908,
      "__": 909,
      "fore": 910,
      "Ġany": 911,
      "ise": 912,
      "Ġsim": 913,
      "olog": 914,
      "Ġgiven": 915,
      "Ġinv": 916,
      "ax": 917,
      "ied": 918,
      "hed": 919,
      "Ġreg": 920,
      "Ġcalcul": 921,
      "ten": 922,
      "ced": 923,
      "Ġadd": 924,
      "ics": 925,
      "Ġcent": 926,
      "Ġno": 927,
      "Ġdevelop": 928,
      "hes": 929,
      "Ġthen": 930,
      "Ġcor": 931,
      "Ġac": 932,
      "Ġprodu": 933,
      "ures": 934,
      "Ġwhat": 935,
      "}$": 936,
      "ov": 937,
      "Ġlearn": 938,
      "Ġ18": 939,
      "Ġfact": 940,
      "tep": 941,
      "Ġfol": 942,
      "Ġusing": 943,
      "ational": 944,
      "hen": 945,
      "Ġbl": 946,
      "arg": 947,
      "ern": 948,
      "Ġass": 949,
      "ĠHow": 950,
      "put": 951,
      "self": 952,
      "ince": 953,
      "Ġequation": 954,
      "To": 955,
      "Ġ'": 956,
      "ĠY": 957,
      "pect": 958,
      "uc": 959,
      "ful": 960,
      "ĠAr": 961,
      "Ġsystem": 962,
      "Ġbo": 963,
      "Ġresult": 964,
      "Ġboth": 965,
      "Ġsc": 966,
      "ng": 967,
      "Ġreturn": 968,
      "Ġour": 969,
      "Ġsoc": 970,
      "Ġsign": 971,
      "stand": 972,
      "imes": 973,
      "Ġyears": 974,
      "ars": 975,
      "Ġmat": 976,
      "Ġcount": 977,
      "Ġsur": 978,
      "Ġph": 979,
      "ark": 980,
      "sw": 981,
      "ĠStep": 982,
      "Ġfollow": 983,
      "10": 984,
      "resent": 985,
      "Ġgra": 986,
      "))": 987,
      "ĠUn": 988,
      "Ġ$\\": 989,
      "Ġsm": 990,
      "Ġcould": 991,
      "ased": 992,
      "Ġstudents": 993,
      "Ġlo": 994,
      "Ġvalue": 995,
      "ade": 996,
      "ident": 997,
      "own": 998,
      "ism": 999,
      "Ġ12": 1000,
      "Ġdec": 1001,
      "ivid": 1002,
      "alth": 1003,
      "Ġsupp": 1004,
      "Ġ{": 1005,
      "Ġcur": 1006,
      "meric": 1007,
      "ife": 1008,
      "Ġchildren": 1009,
      "ives": 1010,
      "yp": 1011,
      "ural": 1012,
      "ool": 1013,
      "ĠIf": 1014,
      "lic": 1015,
      "Ġoff": 1016,
      "ĠHe": 1017,
      "Ġappro": 1018,
      "inal": 1019,
      "ew": 1020,
      "ĠCon": 1021,
      "Ġtrans": 1022,
      "erg": 1023,
      "ists": 1024,
      "Ġdi": 1025,
      "Ġmake": 1026,
      "iss": 1027,
      "Ġfound": 1028,
      "Ġnumbers": 1029,
      "ss": 1030,
      "Ġpers": 1031,
      "wn": 1032,
      "Ġdata": 1033,
      "Ġsame": 1034,
      "ify": 1035,
      "Ġcre": 1036,
      "der": 1037,
      "ĠPro": 1038,
      "ines": 1039,
      "ps": 1040,
      "Ġdet": 1041,
      "Ġright": 1042,
      "ctions": 1043,
      "ĠThey": 1044,
      "^{": 1045,
      "ĠEx": 1046,
      "ĠAmeric": 1047,
      "Ġwater": 1048,
      "ides": 1049,
      "Ġwell": 1050,
      "ick": 1051,
      "ink": 1052,
      "Ġbu": 1053,
      "ĠFor": 1054,
      "Ġbecause": 1055,
      "ited": 1056,
      "Ġinf": 1057,
      "aking": 1058,
      "Ġke": 1059,
      "ob": 1060,
      "ious": 1061,
      "Ġed": 1062,
      "Ġfl": 1063,
      "land": 1064,
      "ily": 1065,
      "ting": 1066,
      "uch": 1067,
      "ĠâĢĵ": 1068,
      "Ġterm": 1069,
      "gs": 1070,
      "ins": 1071,
      "Ġafter": 1072,
      "Ġear": 1073,
      "Ġlong": 1074,
      "hip": 1075,
      "other": 1076,
      "swer": 1077,
      "ants": 1078,
      "Ġmin": 1079,
      "ential": 1080,
      "gan": 1081,
      "Ġatt": 1082,
      "Ġher": 1083,
      "Ġgener": 1084,
      "ability": 1085,
      "Ġeven": 1086,
      "Ġpa": 1087,
      "--": 1088,
      "Ġconst": 1089,
      "ck": 1090,
      "ex": 1091,
      "Ġmain": 1092,
      "iel": 1093,
      "Ġway": 1094,
      "Ġsa": 1095,
      "Ġduring": 1096,
      "val": 1097,
      "ĠâĪ": 1098,
      "ature": 1099,
      "get": 1100,
      "Ġcomple": 1101,
      "Ġexample": 1102,
      "Ġline": 1103,
      "vern": 1104,
      "Ġsum": 1105,
      "Ġ`": 1106,
      "ient": 1107,
      "ute": 1108,
      "Ġimportant": 1109,
      "Ġpower": 1110,
      "Ġshould": 1111,
      "ĠRe": 1112,
      "olv": 1113,
      "rect": 1114,
      "arch": 1115,
      "tern": 1116,
      "Ġinst": 1117,
      "imate": 1118,
      "Ġexper": 1119,
      "Ġrequ": 1120,
      "Ġsk": 1121,
      "Ġclass": 1122,
      "Ġlead": 1123,
      "cy": 1124,
      "chool": 1125,
      "ula": 1126,
      "Ġart": 1127,
      "ĠInd": 1128,
      "Ġworld": 1129,
      "Ġ[": 1130,
      "Ġincre": 1131,
      "20": 1132,
      "tal": 1133,
      "ized": 1134,
      "..": 1135,
      "Ġunderstand": 1136,
      "Ġhum": 1137,
      "Ġend": 1138,
      "Ġsmall": 1139,
      "Ġwrit": 1140,
      "Ġdisc": 1141,
      "ward": 1142,
      "ically": 1143,
      "Ġdep": 1144,
      "Ġhist": 1145,
      "()": 1146,
      "Ġoften": 1147,
      "mb": 1148,
      "ĊĠĠ": 1149,
      "arge": 1150,
      "Ġstate": 1151,
      "ined": 1152,
      "Ġcommun": 1153,
      "Ġgrou": 1154,
      "Ġ->": 1155,
      "Ġhigh": 1156,
      "Ġext": 1157,
      "Ġexpl": 1158,
      "Ġmult": 1159,
      "cial": 1160,
      "Ġprocess": 1161,
      "ength": 1162,
      "old": 1163,
      "Ġdire": 1164,
      "Ġcall": 1165,
      "ety": 1166,
      "Ġposs": 1167,
      "ty": 1168,
      "ually": 1169,
      "Ġref": 1170,
      "dition": 1171,
      "Ġbeing": 1172,
      "Ġarea": 1173,
      "Ġlist": 1174,
      "ffect": 1175,
      "Ġplay": 1176,
      "Ġ15": 1177,
      "12": 1178,
      "port": 1179,
      "ruct": 1180,
      "$.": 1181,
      "Ġjust": 1182,
      "Ġinteg": 1183,
      "ts": 1184,
      "Ġwhile": 1185,
      "Ġpop": 1186,
      "tle": 1187,
      "de": 1188,
      "ases": 1189,
      "Ġmade": 1190,
      "Ġfam": 1191,
      "oy": 1192,
      "Ġele": 1193,
      "ethod": 1194,
      "Ġlife": 1195,
      ")^": 1196,
      "led": 1197,
      "the": 1198,
      "ral": 1199,
      "Ġtri": 1200,
      "ĠAs": 1201,
      "Ġpartic": 1202,
      "ator": 1203,
      "cent": 1204,
      "itive": 1205,
      "irc": 1206,
      "_{": 1207,
      "Ġstart": 1208,
      "pon": 1209,
      "cient": 1210,
      "Ġcontin": 1211,
      "ices": 1212,
      "Ġevery": 1213,
      "read": 1214,
      "Ġperson": 1215,
      "This": 1216,
      "Ġhealth": 1217,
      "ĠWe": 1218,
      "rest": 1219,
      "ale": 1220,
      "ock": 1221,
      "ider": 1222,
      "ages": 1223,
      "Ġdoes": 1224,
      "ĊĠĠĠĠĠĠĠĠĠĠĠĠ": 1225,
      "Ġent": 1226,
      "ode": 1227,
      "ather": 1228,
      "arm": 1229,
      "Ġsee": 1230,
      "Ġca": 1231,
      "cond": 1232,
      "Ġown": 1233,
      "Ġless": 1234,
      "ĠCom": 1235,
      "Ġmon": 1236,
      "Ġshe": 1237,
      "Ġcar": 1238,
      "``": 1239,
      "Ġexpress": 1240,
      "Ġeffect": 1241,
      "ĠQ": 1242,
      "Ġread": 1243,
      "Ġinc": 1244,
      "iron": 1245,
      "Ġobject": 1246,
      "Ġtest": 1247,
      "ional": 1248,
      "Ġconf": 1249,
      "ray": 1250,
      "Ġz": 1251,
      "Ġgovern": 1252,
      "iqu": 1253,
      "ix": 1254,
      "Ġformula": 1255,
      "Ġshow": 1256,
      "els": 1257,
      "Ġquest": 1258,
      "Ġthree": 1259,
      "Ġknown": 1260,
      "ĠÃ": 1261,
      "up": 1262,
      "rt": 1263,
      "Ġsqu": 1264,
      "any": 1265,
      "itions": 1266,
      "ets": 1267,
      "ality": 1268,
      "Ġagain": 1269,
      "rence": 1270,
      "Ġloc": 1271,
      ".âĢĿ": 1272,
      "ĠHowever": 1273,
      "formation": 1274,
      "ted": 1275,
      "Ġthose": 1276,
      "Ġland": 1277,
      "hem": 1278,
      "Ġcommon": 1279,
      "Ġsupport": 1280,
      "Ġaround": 1281,
      "ave": 1282,
      "Ġest": 1283,
      "ĠAn": 1284,
      "ury": 1285,
      "olution": 1286,
      "akes": 1287,
      "chn": 1288,
      "Ġback": 1289,
      "ror": 1290,
      "Ġmuch": 1291,
      "Ġins": 1292,
      "ning": 1293,
      "vent": 1294,
      "Ġang": 1295,
      "Ġtotal": 1296,
      "omen": 1297,
      "iod": 1298,
      "Ġcult": 1299,
      "Ġocc": 1300,
      "Ġ16": 1301,
      "ĠAl": 1302,
      "Ġvery": 1303,
      "Ġincluding": 1304,
      "io": 1305,
      "Ġbel": 1306,
      "Ġpar": 1307,
      "Ġschool": 1308,
      "Ġaut": 1309,
      "here": 1310,
      "Ġcorrect": 1311,
      "Ġgrow": 1312,
      "ross": 1313,
      "Ġplan": 1314,
      "Ġmean": 1315,
      "ĠTh": 1316,
      "gg": 1317,
      "ĠThese": 1318,
      "qrt": 1319,
      "19": 1320,
      "Ġpat": 1321,
      "Ġvalues": 1322,
      "omet": 1323,
      "ividual": 1324,
      "ĠĊ": 1325,
      "How": 1326,
      "Ġdown": 1327,
      "Ġrese": 1328,
      "Ġprint": 1329,
      "und": 1330,
      "ness": 1331,
      "emb": 1332,
      "Ġsocial": 1333,
      "ork": 1334,
      "ec": 1335,
      "Ġbeh": 1336,
      "ples": 1337,
      "Ġallow": 1338,
      "We": 1339,
      "ield": 1340,
      "Ġser": 1341,
      "ier": 1342,
      "Ġeduc": 1343,
      "ron": 1344,
      "right": 1345,
      "viron": 1346,
      "Ġsignific": 1347,
      "ision": 1348,
      "Ġmethod": 1349,
      "Ġsl": 1350,
      "ublic": 1351,
      "Ġanswer": 1352,
      "Ġdid": 1353,
      "$,": 1354,
      "ĊĊĠĠĠĠĠĠĠ": 1355,
      "Ġmed": 1356,
      "Ġfood": 1357,
      "Ġremain": 1358,
      "oss": 1359,
      "Ġstep": 1360,
      "ĠAf": 1361,
      "Ġmeas": 1362,
      "Ġprob": 1363,
      "ergy": 1364,
      "Ġlearning": 1365,
      "ody": 1366,
      "Ġap": 1367,
      "ĠThere": 1368,
      "Ġmust": 1369,
      "15": 1370,
      "Ġtake": 1371,
      "iew": 1372,
      "Ġve": 1373,
      "Ġindividual": 1374,
      "ĠÎ": 1375,
      "Ġequal": 1376,
      "Ġactiv": 1377,
      "Ġmet": 1378,
      "Ġlaw": 1379,
      "Ġbefore": 1380,
      "Ġopp": 1381,
      "Ġlarge": 1382,
      "com": 1383,
      "ology": 1384,
      "day": 1385,
      "uss": 1386,
      "Ġhand": 1387,
      "name": 1388,
      "There": 1389,
      "Ġtyp": 1390,
      "Ġdiv": 1391,
      "fic": 1392,
      "atic": 1393,
      "Ġprog": 1394,
      "to": 1395,
      "Ġpass": 1396,
      "Ġel": 1397,
      "ulation": 1398,
      "Ġchange": 1399,
      "stit": 1400,
      "lu": 1401,
      "Ġtechn": 1402,
      "Ġlength": 1403,
      "Ġsecond": 1404,
      "ills": 1405,
      "\")": 1406,
      "ĠRet": 1407,
      "conom": 1408,
      "Ġstand": 1409,
      "angle": 1410,
      "ided": 1411,
      "Ġrepresent": 1412,
      "Ġident": 1413,
      "Ġide": 1414,
      "Ġmove": 1415,
      "25": 1416,
      "itial": 1417,
      "Ġlit": 1418,
      "vert": 1419,
      "Ġ100": 1420,
      "An": 1421,
      "Ġlevel": 1422,
      "ired": 1423,
      "Ġperiod": 1424,
      "ĠNone": 1425,
      "Ġfollowing": 1426,
      "ĠWhat": 1427,
      "Ġorig": 1428,
      "11": 1429,
      "ven": 1430,
      "ared": 1431,
      "Ġday": 1432,
      "ĠCalcul": 1433,
      "Ġinformation": 1434,
      "par": 1435,
      "Ġ<": 1436,
      "Ġpossible": 1437,
      "Ġserv": 1438,
      "ency": 1439,
      "angu": 1440,
      "Ġmil": 1441,
      "ians": 1442,
      "urns": 1443,
      "Ġpract": 1444,
      "mpt": 1445,
      "ished": 1446,
      "Ġmeans": 1447,
      "Ġgood": 1448,
      "Ġprote": 1449,
      "Ġenviron": 1450,
      "Ġ17": 1451,
      "Ġcurrent": 1452,
      "ots": 1453,
      "Ġgre": 1454,
      "Ġsolve": 1455,
      "âĪ": 1456,
      "ination": 1457,
      "Ġhuman": 1458,
      "iving": 1459,
      "Ġtem": 1460,
      "def": 1461,
      "Ġexperi": 1462,
      "Ġer": 1463,
      "Ġdem": 1464,
      "aj": 1465,
      "Ġcalculate": 1466,
      "Ġvol": 1467,
      "ĠWh": 1468,
      "Ġlet": 1469,
      "uro": 1470,
      "ull": 1471,
      "Ġproper": 1472,
      "Ġcalled": 1473,
      "Ġchar": 1474,
      "Ġorder": 1475,
      "ization": 1476,
      "ĠAd": 1477,
      "Ġproduct": 1478,
      "eg": 1479,
      "acter": 1480,
      "ĠÃĹ": 1481,
      "hers": 1482,
      "ense": 1483,
      "Ġinterest": 1484,
      "Ġhim": 1485,
      "Ġchang": 1486,
      "Ġlog": 1487,
      "Ġdeterm": 1488,
      "Ġbuild": 1489,
      "Ġstill": 1490,
      "ior": 1491,
      "16": 1492,
      "ĠTo": 1493,
      "',": 1494,
      "ran": 1495,
      "ves": 1496,
      "ved": 1497,
      "18": 1498,
      "lish": 1499,
      "Ġav": 1500,
      "ived": 1501,
      "Ġname": 1502,
      "Ġcirc": 1503,
      "Ġlim": 1504,
      "Ġadv": 1505,
      "Ġlook": 1506,
      "Ġop": 1507,
      "ring": 1508,
      "Ġsignificant": 1509,
      "Ġgovernment": 1510,
      "Ġwithout": 1511,
      "Ġplace": 1512,
      "Ġhistory": 1513,
      "ype": 1514,
      "ving": 1515,
      "Ġgreat": 1516,
      "Ġwar": 1517,
      "Ġanother": 1518,
      "Ġbelie": 1519,
      "ote": 1520,
      "Ġenergy": 1521,
      "rix": 1522,
      "Ġnum": 1523,
      "Ġbre": 1524,
      "sqrt": 1525,
      "ctor": 1526,
      "Ġpres": 1527,
      "oint": 1528,
      "rodu": 1529,
      "Ġfre": 1530,
      "50": 1531,
      "Ġcle": 1532,
      "Ġelect": 1533,
      "ĠArgs": 1534,
      "text": 1535,
      "cos": 1536,
      "Ġconsider": 1537,
      "ental": 1538,
      "ining": 1539,
      "Ġeng": 1540,
      "ccess": 1541,
      "ertain": 1542,
      "ash": 1543,
      "Ġ&": 1544,
      "outh": 1545,
      "ĠEng": 1546,
      "Ġcontro": 1547,
      "Ġeconom": 1548,
      "ĠNew": 1549,
      "ats": 1550,
      "Ġrad": 1551,
      "Ġearly": 1552,
      "imal": 1553,
      ",âĢĿ": 1554,
      "ences": 1555,
      "urs": 1556,
      "ume": 1557,
      "ĠAt": 1558,
      "ified": 1559,
      "yn": 1560,
      "ape": 1561,
      "Ġreal": 1562,
      "Ġoper": 1563,
      "ĠAmerican": 1564,
      "Ġmass": 1565,
      "bo": 1566,
      "ta": 1567,
      "Ġstudy": 1568,
      "Ġsides": 1569,
      "Ġcontain": 1570,
      "Ġmulti": 1571,
      "ateg": 1572,
      "ivers": 1573,
      "Ġlangu": 1574,
      "Ġ14": 1575,
      "ĠBrit": 1576,
      "Ġmus": 1577,
      "Ġdevelopment": 1578,
      "Ġthough": 1579,
      "osed": 1580,
      "Ġwithin": 1581,
      "heck": 1582,
      "Ġwomen": 1583,
      "ton": 1584,
      "Ġinvolv": 1585,
      "}\\": 1586,
      "Ġgroup": 1587,
      "Ġleg": 1588,
      "utions": 1589,
      "Ġdesc": 1590,
      "Ġmy": 1591,
      "âĢĶ": 1592,
      "Ġnow": 1593,
      "sc": 1594,
      "Ġforce": 1595,
      "ids": 1596,
      "Ġtimes": 1597,
      "Ġpolit": 1598,
      "ption": 1599,
      "Ġprovide": 1600,
      "Ġ13": 1601,
      "ration": 1602,
      "Ġdirect": 1603,
      "Ġaw": 1604,
      "ler": 1605,
      "ital": 1606,
      "Ġbody": 1607,
      "Ġenvironment": 1608,
      "Ġsolution": 1609,
      "ner": 1610,
      "ogn": 1611,
      "Ġeff": 1612,
      "What": 1613,
      "ĠIs": 1614,
      "Ġorgan": 1615,
      "Ġcap": 1616,
      "Ġside": 1617,
      "14": 1618,
      "Ġgu": 1619,
      "Ġdesign": 1620,
      "Ġmodel": 1621,
      "orth": 1622,
      "Ġi": 1623,
      "Ġmight": 1624,
      "Ġtry": 1625,
      "Ġamount": 1626,
      "Ġthink": 1627,
      "Ġredu": 1628,
      "Ġleft": 1629,
      "ĠX": 1630,
      "ĠReturns": 1631,
      "Ġagainst": 1632,
      "Ġdig": 1633,
      "Ġspecies": 1634,
      "oms": 1635,
      "Ġlast": 1636,
      "ouse": 1637,
      "Ġrange": 1638,
      "Ġterms": 1639,
      "\",": 1640,
      "ĊĠĠĠĠĠĠĠĠĠĠĠĠĠĠĠ": 1641,
      "raph": 1642,
      "Ġprof": 1643,
      "Ġsquare": 1644,
      "Ġspecific": 1645,
      "Ġdra": 1646,
      "{\\": 1647,
      "app": 1648,
      "iety": 1649,
      "Ġcreate": 1650,
      "ĠSe": 1651,
      "Ġbir": 1652,
      "Ġpot": 1653,
      "ames": 1654,
      "tain": 1655,
      "Ġvarious": 1656,
      "ĠâĢĺ": 1657,
      "Ġsaid": 1658,
      "mp": 1659,
      "verse": 1660,
      "agn": 1661,
      "For": 1662,
      "ication": 1663,
      "Ġbased": 1664,
      "Ġappe": 1665,
      "orn": 1666,
      "Ġsince": 1667,
      "eral": 1668,
      "Ġeas": 1669,
      "ĠSp": 1670,
      "ug": 1671,
      "Ġrelations": 1672,
      ")(": 1673,
      "ule": 1674,
      "Ġsever": 1675,
      "ÏĢ": 1676,
      "Ġdue": 1677,
      "Ġfin": 1678,
      "Ġcentury": 1679,
      "17": 1680,
      "(\"": 1681,
      "Ġcomb": 1682,
      "imum": 1683,
      "ources": 1684,
      "Ġinclude": 1685,
      "Ġpoints": 1686,
      "ilar": 1687,
      "Ġ30": 1688,
      "Ġdistance": 1689,
      "urope": 1690,
      "Ġconcept": 1691,
      "Ġcase": 1692,
      "co": 1693,
      "rees": 1694,
      "rem": 1695,
      "Ġnat": 1696,
      "Ġimpact": 1697,
      "Ġbehav": 1698,
      "min": 1699,
      "Ġphys": 1700,
      "ditions": 1701,
      "ason": 1702,
      "air": 1703,
      "ĠInt": 1704,
      "Â²": 1705,
      "Ġfour": 1706,
      "ank": 1707,
      "ĠBut": 1708,
      "Ġkey": 1709,
      "ĠDe": 1710,
      "Ġrole": 1711,
      "Ġtext": 1712,
      "Ġsit": 1713,
      "Ġcour": 1714,
      "sin": 1715,
      "Ġcare": 1716,
      "Ġproblems": 1717,
      "Ġsuccess": 1718,
      "aterial": 1719,
      "utes": 1720,
      "Ġcost": 1721,
      "Ġbecome": 1722,
      "Ġ25": 1723,
      "ond": 1724,
      "Ġtop": 1725,
      "Ġwant": 1726,
      "13": 1727,
      "eter": 1728,
      "Ġinflu": 1729,
      "Ġvis": 1730,
      "etic": 1731,
      "ĠCalculate": 1732,
      "ĠUnited": 1733,
      "ajor": 1734,
      "Ġens": 1735,
      "ĠEurope": 1736,
      "Ġmark": 1737,
      "Ġcho": 1738,
      "Ġlight": 1739,
      "not": 1740,
      "ah": 1741,
      "Ġrest": 1742,
      "left": 1743,
      "ique": 1744,
      "Ġtreat": 1745,
      "Ġfew": 1746,
      "Â°": 1747,
      "Ġseveral": 1748,
      "epend": 1749,
      "ĠWhen": 1750,
      "Ġaddition": 1751,
      "Ġinput": 1752,
      "face": 1753,
      "Ġbecame": 1754,
      "oman": 1755,
      "ering": 1756,
      "Ġpositive": 1757,
      "Ġnon": 1758,
      "Ġimpro": 1759,
      "data": 1760,
      "Ġways": 1761,
      "ories": 1762,
      "Ġothers": 1763,
      "Ġ200": 1764,
      "Ġparticular": 1765,
      "urther": 1766,
      "Ġunt": 1767,
      "Ġneg": 1768,
      "Ġskills": 1769,
      "Ġmax": 1770,
      "rain": 1771,
      "lying": 1772,
      "Ġareas": 1773,
      "Ġcomplex": 1774,
      "Ġmill": 1775,
      "Ġcaus": 1776,
      "Ġmaking": 1777,
      "ead": 1778,
      "Ġimm": 1779,
      "pr": 1780,
      "Ġdev": 1781,
      "Ġbas": 1782,
      "ĠSh": 1783,
      "ards": 1784,
      "cing": 1785,
      "It": 1786,
      "from": 1787,
      "ways": 1788,
      "idence": 1789,
      "Ġcell": 1790,
      "Ġfra": 1791,
      "$$": 1792,
      "hor": 1793,
      "Ġ11": 1794,
      "Ġlanguage": 1795,
      "Ġsize": 1796,
      "Ġlarg": 1797,
      "Ġmeasure": 1798,
      "aces": 1799,
      "ries": 1800,
      "Ġmaterial": 1801,
      "Ġiss": 1802,
      "Ġrate": 1803,
      "omin": 1804,
      "Ġris": 1805,
      "Ġfore": 1806,
      "Ġmov": 1807,
      "ĠStates": 1808,
      "Ġpublic": 1809,
      "Ġable": 1810,
      "ators": 1811,
      "Ġprobability": 1812,
      "Ġhapp": 1813,
      "ithm": 1814,
      "less": 1815,
      "ording": 1816,
      "rop": 1817,
      "Ġpresent": 1818,
      "Ġfile": 1819,
      "Ġlab": 1820,
      "Ġhour": 1821,
      "Ġfamily": 1822,
      "iation": 1823,
      "Ġchall": 1824,
      "(-": 1825,
      "verage": 1826,
      "path": 1827,
      "Ġpred": 1828,
      "Ġess": 1829,
      "ances": 1830,
      "Ġstruct": 1831,
      "sing": 1832,
      "Ġfeel": 1833,
      "ables": 1834,
      "ention": 1835,
      "alk": 1836,
      "ĠFind": 1837,
      "Ġsimpl": 1838,
      "Ġage": 1839,
      "Ġprogram": 1840,
      "Ġeducation": 1841,
      "Ġunderstanding": 1842,
      "ole": 1843,
      "ends": 1844,
      "ered": 1845,
      "Ġpopulation": 1846,
      "Ġtype": 1847,
      "Ġanal": 1848,
      "Ġdistrib": 1849,
      "ival": 1850,
      "Ġmot": 1851,
      "Ġbetter": 1852,
      "Ġrelationship": 1853,
      "Ġes": 1854,
      "60": 1855,
      "amples": 1856,
      "Ġmajor": 1857,
      "Ġâī": 1858,
      "ĊĊ": 1859,
      "ocus": 1860,
      "ĠWar": 1861,
      "Ġenc": 1862,
      "âĢľ": 1863,
      "Ġcertain": 1864,
      "ik": 1865,
      "Ġbeg": 1866,
      "ius": 1867,
      "Ġmemb": 1868,
      "Ġamong": 1869,
      "Ġcharacter": 1870,
      "ĠPl": 1871,
      "Ġdr": 1872,
      "Ġobs": 1873,
      "Ġtoget": 1874,
      "Ġtogether": 1875,
      "play": 1876,
      "Ġprovided": 1877,
      "ĠGerm": 1878,
      "Ġcreat": 1879,
      "line": 1880,
      "Ġopen": 1881,
      "Ġresearch": 1882,
      "ĠBy": 1883,
      "Ġ==": 1884,
      "40": 1885,
      "ilities": 1886,
      "ource": 1887,
      "If": 1888,
      "ero": 1889,
      "Ġdeg": 1890,
      "Ġspace": 1891,
      "ively": 1892,
      "30": 1893,
      "Ġcountry": 1894,
      "ĠCan": 1895,
      "Ġperform": 1896,
      "Ġmen": 1897,
      "aves": 1898,
      "Ġstates": 1899,
      "Ġold": 1900,
      "Ġden": 1901,
      "Ġuntil": 1902,
      "Ġnatural": 1903,
      "az": 1904,
      "Ġquestion": 1905,
      "man": 1906,
      "istic": 1907,
      "ĠZ": 1908,
      "ĠAfric": 1909,
      "Ġspeed": 1910,
      "Let": 1911,
      "Ġhead": 1912,
      "Ġdays": 1913,
      "Ġteac": 1914,
      "rist": 1915,
      "Ġfactor": 1916,
      "Ġparent": 1917,
      "Ġben": 1918,
      "Ġpur": 1919,
      "ĠAnd": 1920,
      "Ġestab": 1921,
      "oh": 1922,
      "imately": 1923,
      "Ġapproach": 1924,
      "Ġlater": 1925,
      "yle": 1926,
      "Ġwords": 1927,
      "Ġevent": 1928,
      "ems": 1929,
      "Ġstat": 1930,
      "idd": 1931,
      "Ġpolitical": 1932,
      "Ġaffect": 1933,
      "Ġhig": 1934,
      "Ġrespon": 1935,
      "Ġpotential": 1936,
      "amp": 1937,
      "Ġdise": 1938,
      "ortun": 1939,
      "Ġindu": 1940,
      "Ġgraph": 1941,
      "ĠEar": 1942,
      "be": 1943,
      "ĠOn": 1944,
      "Ġhome": 1945,
      "lished": 1946,
      "```": 1947,
      "So": 1948,
      "ivil": 1949,
      "ised": 1950,
      "clus": 1951,
      "Ġfinal": 1952,
      "Ġcontrol": 1953,
      "Ġexpression": 1954,
      "Ex": 1955,
      "Ġfocus": 1956,
      "ling": 1957,
      "Ġbest": 1958,
      "pos": 1959,
      "ficult": 1960,
      "ression": 1961,
      "Ġpercent": 1962,
      "Ġangle": 1963,
      "ery": 1964,
      "ently": 1965,
      "for": 1966,
      "Ġmar": 1967,
      "ask": 1968,
      "olve": 1969,
      "Ġpath": 1970,
      "Ġair": 1971,
      "Ġnext": 1972,
      "Ġalong": 1973,
      "ument": 1974,
      "Ġ50": 1975,
      "ĠBritish": 1976,
      "Ġconditions": 1977,
      "Ġopt": 1978,
      "Ġfactors": 1979,
      "Ġrev": 1980,
      "log": 1981,
      "Ġkeep": 1982,
      "orts": 1983,
      "(\\": 1984,
      "],": 1985,
      "Ġmonth": 1986,
      "However": 1987,
      "equ": 1988,
      "bs": 1989,
      "rid": 1990,
      "though": 1991,
      "Ġcontinu": 1992,
      "ĠTr": 1993,
      "ales": 1994,
      ".,": 1995,
      "imals": 1996,
      "Ġsimilar": 1997,
      "Ġacross": 1998,
      "Ġ>": 1999,
      "ĠQu": 2000,
      "umber": 2001,
      "ĠYou": 2002,
      "Ġsing": 2003,
      "Ġsequ": 2004,
      "ges": 2005,
      "Ġscient": 2006,
      "Ġdifficult": 2007,
      "by": 2008,
      "Ġparts": 2009,
      "Ġnear": 2010,
      "over": 2011,
      "math": 2012,
      "Ġbat": 2013,
      "pi": 2014,
      "ological": 2015,
      "Ġcrit": 2016,
      "ending": 2017,
      "Ġnorm": 2018,
      "Ġweight": 2019,
      "uture": 2020,
      "Ġtemper": 2021,
      "nect": 2022,
      "Ġdifference": 2023,
      "ĠCl": 2024,
      "Ġrespect": 2025,
      "ĠPr": 2026,
      ")$": 2027,
      "itud": 2028,
      "apt": 2029,
      "ended": 2030,
      "Ġpric": 2031,
      "Ġyoung": 2032,
      "Ġrul": 2033,
      "of": 2034,
      "Ġexpect": 2035,
      "Ġfield": 2036,
      "ĠâĪļ": 2037,
      "icle": 2038,
      "Ġexist": 2039,
      "asing": 2040,
      "Ġarm": 2041,
      "iversity": 2042,
      "Ġrat": 2043,
      "Ġcm": 2044,
      "ĠCre": 2045,
      "Ġinitial": 2046,
      "Ġ40": 2047,
      "Ġoccur": 2048,
      "aced": 2049,
      "Ġder": 2050,
      "aring": 2051,
      "Ġrun": 2052,
      "ission": 2053,
      "Ġequations": 2054,
      "Ġflow": 2055,
      "pro": 2056,
      "atures": 2057,
      "24": 2058,
      "oura": 2059,
      "Ġheight": 2060,
      "Ġtoday": 2061,
      "oney": 2062,
      "Ġresp": 2063,
      "Ġ__": 2064,
      "Ġarr": 2065,
      "}}": 2066,
      "Ġcos": 2067,
      "Ġsurface": 2068,
      "ĠCol": 2069,
      "Ġquestions": 2070,
      "ither": 2071,
      "bal": 2072,
      "selves": 2073,
      "Ġ(-": 2074,
      "ma": 2075,
      "Ġlikely": 2076,
      "Ġalways": 2077,
      "')": 2078,
      "Ġconstant": 2079,
      "set": 2080,
      "iness": 2081,
      "Ġcr": 2082,
      "ina": 2083,
      "Ġessential": 2084,
      "istance": 2085,
      "arc": 2086,
      "Ġsw": 2087,
      "ploy": 2088,
      "Ġrecogn": 2089,
      "\":": 2090,
      "Ġgroups": 2091,
      "ding": 2092,
      "Ġlow": 2093,
      "Ġturn": 2094,
      "pecial": 2095,
      "ledge": 2096,
      "Ġrece": 2097,
      "Ġoriginal": 2098,
      "Ġ24": 2099,
      "array": 2100,
      "alf": 2101,
      "Ġapprox": 2102,
      "Ġsin": 2103,
      "Ġthings": 2104,
      "Ġimage": 2105,
      "Ġdescrib": 2106,
      "aken": 2107,
      "ored": 2108,
      "orld": 2109,
      "Ġdel": 2110,
      "oid": 2111,
      "Ġbro": 2112,
      "Ġrelig": 2113,
      "Ġstandard": 2114,
      "ĠSo": 2115,
      "itary": 2116,
      "chie": 2117,
      "omes": 2118,
      "Ġcontrib": 2119,
      "He": 2120,
      "Ġpattern": 2121,
      "Ġpress": 2122,
      "Ġpain": 2123,
      "Wh": 2124,
      "ruction": 2125,
      "py": 2126,
      "Ġgeneral": 2127,
      "mbol": 2128,
      "Ġge": 2129,
      "ĠDef": 2130,
      "Ġcome": 2131,
      "Ġce": 2132,
      "Ġstrong": 2133,
      "Ġtriangle": 2134,
      "Ġcy": 2135,
      "Ġview": 2136,
      "Ġleast": 2137,
      "Ġfrequ": 2138,
      "Now": 2139,
      "Ġshort": 2140,
      "Ġindepend": 2141,
      "Ġfurther": 2142,
      "Ġdivid": 2143,
      "Ġbenef": 2144,
      "Ġseries": 2145,
      "Ġdon": 2146,
      "Ġposition": 2147,
      "work": 2148,
      "ests": 2149,
      "inary": 2150,
      "mod": 2151,
      "Ġexcept": 2152,
      "Ġchanges": 2153,
      "Ġfuture": 2154,
      "oun": 2155,
      "Ġarg": 2156,
      "As": 2157,
      "Ġauthor": 2158,
      "Ġteach": 2159,
      "Ġsay": 2160,
      "Ġresults": 2161,
      "ĠChrist": 2162,
      "Ġtoo": 2163,
      "Ġsent": 2164,
      "Ġrights": 2165,
      "iet": 2166,
      "Ġcity": 2167,
      "Ġaverage": 2168,
      "ium": 2169,
      "Ġproject": 2170,
      "ties": 2171,
      "Ġneeds": 2172,
      "ately": 2173,
      ")/": 2174,
      "vious": 2175,
      "umn": 2176,
      "hemat": 2177,
      "ird": 2178,
      "iction": 2179,
      "Ġsociety": 2180,
      "cience": 2181,
      "wards": 2182,
      "cd": 2183,
      "Ġbegan": 2184,
      "Ġmodern": 2185,
      "ilt": 2186,
      "Ġnegative": 2187,
      "Ġword": 2188,
      "Ġbase": 2189,
      "file": 2190,
      "Ġbus": 2191,
      "Ġnecess": 2192,
      "rror": 2193,
      "ison": 2194,
      "ĠPh": 2195,
      "Ġcolon": 2196,
      "Ġput": 2197,
      "Ġaccess": 2198,
      "Ġplant": 2199,
      "Ġtravel": 2200,
      "St": 2201,
      "oci": 2202,
      "Ġtypes": 2203,
      "Ġprom": 2204,
      "Ġmusic": 2205,
      "atch": 2206,
      "':": 2207,
      "Ġsugg": 2208,
      "oks": 2209,
      "acy": 2210,
      "Ġnumer": 2211,
      "aps": 2212,
      "Ġindividuals": 2213,
      "aster": 2214,
      "unt": 2215,
      "Ġactivities": 2216,
      "Ġtrue": 2217,
      "Ġprotect": 2218,
      "...": 2219,
      "Ġlocal": 2220,
      "Ġvir": 2221,
      "use": 2222,
      "Ġcommunity": 2223,
      "Ġachie": 2224,
      "Ġworks": 2225,
      "where": 2226,
      "Ġclear": 2227,
      "Ġconc": 2228,
      "Ġchalleng": 2229,
      "----": 2230,
      "0000": 2231,
      "Ġstudent": 2232,
      "ocity": 2233,
      "Ġled": 2234,
      "Ġfig": 2235,
      "'t": 2236,
      "Ġfree": 2237,
      "Ġcause": 2238,
      "ĠExample": 2239,
      "alle": 2240,
      "ĠĠĠĠĠĠĠĠ": 2241,
      "ĠBl": 2242,
      "Ġcomplete": 2243,
      "Ġprim": 2244,
      "80": 2245,
      "Ġant": 2246,
      "Ġflo": 2247,
      "Ġsound": 2248,
      "sh": 2249,
      "ĠRes": 2250,
      "ret": 2251,
      "Ġmatrix": 2252,
      "Ġdiscuss": 2253,
      "Ġwhy": 2254,
      "Ġdetermine": 2255,
      "Ġaccount": 2256,
      "Ġunique": 2257,
      "Ġbegin": 2258,
      "Therefore": 2259,
      "ones": 2260,
      "Ġ}": 2261,
      "ĠComm": 2262,
      "Ġpay": 2263,
      "Ġrespons": 2264,
      "Ġcannot": 2265,
      "inter": 2266,
      "li": 2267,
      "Ġfar": 2268,
      "ann": 2269,
      "rict": 2270,
      "75": 2271,
      "ograph": 2272,
      "Ġground": 2273,
      "Ġexperience": 2274,
      "('": 2275,
      "Ġanimals": 2276,
      "ches": 2277,
      "amb": 2278,
      "$\\": 2279,
      "Ġstrateg": 2280,
      "When": 2281,
      "Ġspecial": 2282,
      "Ġgreater": 2283,
      "Ġsteps": 2284,
      "Ġinvest": 2285,
      "ĠâĢĶ": 2286,
      "dd": 2287,
      "lection": 2288,
      "ference": 2289,
      "gen": 2290,
      "ĠSome": 2291,
      "Ġabove": 2292,
      "Ġelements": 2293,
      "ĠEarth": 2294,
      "Ġver": 2295,
      "Ġthemselves": 2296,
      "Ġask": 2297,
      "22": 2298,
      "Ġavail": 2299,
      "side": 2300,
      "Ġnp": 2301,
      "Ġobserv": 2302,
      "Ġtradition": 2303,
      "Ġeconomic": 2304,
      "Ġgive": 2305,
      "Ġ60": 2306,
      "Ġemot": 2307,
      "Ġvel": 2308,
      "idered": 2309,
      "sy": 2310,
      "mat": 2311,
      "fer": 2312,
      "Ġincrease": 2313,
      "Ġter": 2314,
      "ires": 2315,
      "Ġregion": 2316,
      "Error": 2317,
      "Ġability": 2318,
      "Ġgives": 2319,
      "99": 2320,
      "pecially": 2321,
      "âĢĵ": 2322,
      "erc": 2323,
      "ĠEnglish": 2324,
      "Given": 2325,
      "ably": 2326,
      "ze": 2327,
      "Ġprin": 2328,
      "Ġloss": 2329,
      "ils": 2330,
      "Ġpost": 2331,
      "ĠOne": 2332,
      "Ġseen": 2333,
      "ething": 2334,
      "Ġcreated": 2335,
      "Ġaway": 2336,
      "Ġintern": 2337,
      "Ġconsidered": 2338,
      "Ġsitu": 2339,
      "iply": 2340,
      "Ġhowever": 2341,
      "Ġdeath": 2342,
      "Ġrequired": 2343,
      "class": 2344,
      "Ġphysical": 2345,
      "omething": 2346,
      "iding": 2347,
      "rel": 2348,
      "Ġknowledge": 2349,
      "Ġroot": 2350,
      "Ġwhether": 2351,
      "33": 2352,
      "Ġsystems": 2353,
      "Ġhours": 2354,
      "Ġopportun": 2355,
      "Ġrule": 2356,
      "Since": 2357,
      "Pro": 2358,
      "Ġsequence": 2359,
      "Ġteam": 2360,
      "iver": 2361,
      "osp": 2362,
      "Ġhere": 2363,
      "Ġsymbol": 2364,
      "times": 2365,
      "Ġbehavior": 2366,
      "ults": 2367,
      "ĠSince": 2368,
      "Ġsubject": 2369,
      "Ġuser": 2370,
      "Ġcountries": 2371,
      "Ġhistor": 2372,
      "Ġdistribution": 2373,
      "sequ": 2374,
      "ĠAmerica": 2375,
      "ivity": 2376,
      "ands": 2377,
      "itude": 2378,
      "Ġrisk": 2379,
      "mber": 2380,
      "Ġancient": 2381,
      "100": 2382,
      "Ġworking": 2383,
      "Ġusually": 2384,
      "place": 2385,
      "Ġstory": 2386,
      "oot": 2387,
      "ĠLe": 2388,
      "Ġsays": 2389,
      "ĠOr": 2390,
      "Ġbi": 2391,
      "Ġ\\(": 2392,
      "izing": 2393,
      "Ġwee": 2394,
      "ights": 2395,
      "ĠSc": 2396,
      "ordin": 2397,
      "ane": 2398,
      "Ġgrowth": 2399,
      "Ġclose": 2400,
      "Ġhigher": 2401,
      "aut": 2402,
      "Ġfil": 2403,
      "Ġdone": 2404,
      "Ġwhole": 2405,
      "abit": 2406,
      "Ġmillion": 2407,
      "Ġtool": 2408,
      "Ġfeet": 2409,
      "Ġprevent": 2410,
      "Ġsomething": 2411,
      "icial": 2412,
      "Ġsingle": 2413,
      "ĠIm": 2414,
      "Ġcases": 2415,
      "rences": 2416,
      "Ġculture": 2417,
      "Ġrecord": 2418,
      "ĠWith": 2419,
      "Ġblack": 2420,
      "ĠGen": 2421,
      "Ġball": 2422,
      "ters": 2423,
      "import": 2424,
      "ĠGod": 2425,
      "ĠCreate": 2426,
      "lim": 2427,
      "Ġ:": 2428,
      "Ġindic": 2429,
      "Ġespecially": 2430,
      "ĠIndia": 2431,
      "Ġcircle": 2432,
      "Ġvelocity": 2433,
      "ises": 2434,
      "cle": 2435,
      "Ġsimple": 2436,
      "Ġpolic": 2437,
      "ured": 2438,
      "Ġhaving": 2439,
      "version": 2440,
      "âĪļ": 2441,
      "ĠEn": 2442,
      "Ġwhite": 2443,
      "ĠApp": 2444,
      "oring": 2445,
      "Ġmeaning": 2446,
      "Ġill": 2447,
      "tract": 2448,
      "Ġelse": 2449,
      "aim": 2450,
      "Ġdisease": 2451,
      "Ġhard": 2452,
      "dis": 2453,
      "}$.": 2454,
      "Ġresources": 2455,
      "ipp": 2456,
      "ohn": 2457,
      "ification": 2458,
      "ĠNorth": 2459,
      "ae": 2460,
      "Ġrather": 2461,
      "])": 2462,
      "Ġabs": 2463,
      "ĠUniversity": 2464,
      "ĠBe": 2465,
      "une": 2466,
      "Ġlittle": 2467,
      "Ġcru": 2468,
      "iddle": 2469,
      "ready": 2470,
      "Ġrelated": 2471,
      "Ġexplain": 2472,
      "Ġhy": 2473,
      "Ġhalf": 2474,
      "Ġmembers": 2475,
      "Ġtook": 2476,
      "ĠÂ": 2477,
      "Ġelement": 2478,
      "Ġmoney": 2479,
      "ients": 2480,
      "Con": 2481,
      "theta": 2482,
      "Ġassoci": 2483,
      "Ġbook": 2484,
      "test": 2485,
      "rate": 2486,
      "ox": 2487,
      "Ġresponse": 2488,
      "uted": 2489,
      "Ġpast": 2490,
      "Al": 2491,
      "Ġneeded": 2492,
      "ndom": 2493,
      "Ġmilitary": 2494,
      "Ġreason": 2495,
      ":**": 2496,
      "Ġimprove": 2497,
      "icient": 2498,
      "most": 2499,
      "ĠSouth": 2500,
      "Ch": 2501,
      "ĠPer": 2502,
      "ĠAll": 2503,
      "arget": 2504,
      "aries": 2505,
      "Ġvolume": 2506,
      "Ġlive": 2507,
      "omial": 2508,
      "Ġdraw": 2509,
      "ĠPar": 2510,
      "Ġlines": 2511,
      "Ġfunctions": 2512,
      "Ġbreak": 2513,
      "Ġplants": 2514,
      "Ġdat": 2515,
      "Ġevents": 2516,
      "Ġlay": 2517,
      "Ġmathemat": 2518,
      "Ġsat": 2519,
      "illed": 2520,
      "Ġcondition": 2521,
      "Ġglo": 2522,
      "ĠRoman": 2523,
      "oph": 2524,
      "Ġrele": 2525,
      "45": 2526,
      "Ġdest": 2527,
      "ĠWest": 2528,
      "list": 2529,
      "reg": 2530,
      "Ġcame": 2531,
      "Ġsurv": 2532,
      "23": 2533,
      "Ġconnect": 2534,
      "Ġsense": 2535,
      "ĠHis": 2536,
      "Ġsample": 2537,
      "Answer": 2538,
      "reme": 2539,
      "Ġmakes": 2540,
      "Ġenough": 2541,
      "alse": 2542,
      "Ġfall": 2543,
      "Ġmath": 2544,
      "Ġapplic": 2545,
      "Ġred": 2546,
      "ifying": 2547,
      "Ġnature": 2548,
      "Ġgr": 2549,
      "ger": 2550,
      "Ġmom": 2551,
      "Ġinvolves": 2552,
      "Ġavailable": 2553,
      "Ġprime": 2554,
      "ĠWorld": 2555,
      "Ġprice": 2556,
      "oll": 2557,
      "}{\\": 2558,
      "Ġpractice": 2559,
      "Ġintrodu": 2560,
      "Ġmess": 2561,
      "Ġgame": 2562,
      "ites": 2563,
      "rench": 2564,
      "action": 2565,
      "Ġeither": 2566,
      "tt": 2567,
      "Ġmaintain": 2568,
      "Ġalready": 2569,
      "77": 2570,
      "Ġreport": 2571,
      "uments": 2572,
      "ush": 2573,
      "Ġwide": 2574,
      "ging": 2575,
      "Ġnet": 2576,
      "Ġpie": 2577,
      "iol": 2578,
      "Ġkind": 2579,
      "order": 2580,
      "Ġfund": 2581,
      "Ġmaximum": 2582,
      "celer": 2583,
      "plic": 2584,
      "Ġthroughout": 2585,
      "ĠProblem": 2586,
      "ĠTe": 2587,
      "Ġgl": 2588,
      "Ġtaken": 2589,
      "Ġoutput": 2590,
      "90": 2591,
      "cdot": 2592,
      "uting": 2593,
      "ĠAct": 2594,
      "Ġcolor": 2595,
      "Ġrow": 2596,
      "ott": 2597,
      "Ġexact": 2598,
      "Ġgain": 2599,
      "Ġhelps": 2600,
      "acc": 2601,
      "Ġunit": 2602,
      "ged": 2603,
      "enn": 2604,
      "Ġwritten": 2605,
      "rite": 2606,
      "Ġratio": 2607,
      "Ġcub": 2608,
      "ising": 2609,
      "Ġey": 2610,
      "Ġsepar": 2611,
      "ĠSim": 2612,
      "arr": 2613,
      "Ġnational": 2614,
      "ibility": 2615,
      "Ġlimit": 2616,
      "21": 2617,
      "Ġcultural": 2618,
      "Ġri": 2619,
      "let": 2620,
      "Ġfive": 2621,
      "Ġmagn": 2622,
      "Ġcivil": 2623,
      "ĊĠĠĠĠĊĠĠĠ": 2624,
      "Ġlower": 2625,
      "sum": 2626,
      "Ġmovement": 2627,
      "Ġprofess": 2628,
      "Ġarch": 2629,
      "Ġcheck": 2630,
      "Ġhol": 2631,
      "Ġtable": 2632,
      "Ġcells": 2633,
      "Ġspread": 2634,
      "istics": 2635,
      "apan": 2636,
      "ĠKing": 2637,
      "Ġonce": 2638,
      "ĠUS": 2639,
      "Ġclimate": 2640,
      "ams": 2641,
      "ĠRep": 2642,
      "####": 2643,
      "Ġnever": 2644,
      "Ġtree": 2645,
      "Ġapproximately": 2646,
      "Ġmultiple": 2647,
      "ym": 2648,
      "Ġcalculated": 2649,
      "Ġerror": 2650,
      "Ġensure": 2651,
      "Ġbig": 2652,
      "Ġreading": 2653,
      "Ġcoll": 2654,
      "Ġdeveloped": 2655,
      "Ġdirection": 2656,
      "Ġemploy": 2657,
      "ĠJew": 2658,
      "Ġitself": 2659,
      "ratic": 2660,
      "col": 2661,
      "Ġfem": 2662,
      "Ġsource": 2663,
      "Ġidea": 2664,
      "orem": 2665,
      "Ġactivity": 2666,
      "Ġfri": 2667,
      "por": 2668,
      "ĊĠ": 2669,
      "ips": 2670,
      "ĠVal": 2671,
      "Ġparents": 2672,
      "ares": 2673,
      "ĠWhile": 2674,
      "Ġfamil": 2675,
      "Ġwrite": 2676,
      "Ġaddress": 2677,
      "Ġ.": 2678,
      "ĠGree": 2679,
      "Ġmethods": 2680,
      "date": 2681,
      "ops": 2682,
      "Ġshape": 2683,
      "Ġgoing": 2684,
      "Ġforces": 2685,
      "gor": 2686,
      "Ġvector": 2687,
      "Ġport": 2688,
      "Ġindust": 2689,
      "70": 2690,
      "Ġinstance": 2691,
      "mptoms": 2692,
      "36": 2693,
      "Ġwind": 2694,
      "af": 2695,
      "Ġbound": 2696,
      "estion": 2697,
      "Ġtemperature": 2698,
      "Ġlarger": 2699,
      "Using": 2700,
      "ĠGe": 2701,
      "ender": 2702,
      "Ġquick": 2703,
      "Ġhouse": 2704,
      "Ġnormal": 2705,
      "aches": 2706,
      "Ġfarm": 2707,
      ".\"": 2708,
      "acks": 2709,
      "Ġresearc": 2710,
      "Ġliving": 2711,
      "Ġtax": 2712,
      "mit": 2713,
      "Ġflu": 2714,
      "urch": 2715,
      "Ġlevels": 2716,
      "duct": 2717,
      "Ġzero": 2718,
      "augh": 2719,
      "Ġentire": 2720,
      "Ġtechnology": 2721,
      "Ġpair": 2722,
      "atives": 2723,
      "Ġliter": 2724,
      "Ġfull": 2725,
      "Ġencoura": 2726,
      "Ġfail": 2727,
      "ysis": 2728,
      "ĠPol": 2729,
      "Ġfac": 2730,
      "like": 2731,
      "ĠShe": 2732,
      "Ġrequire": 2733,
      "Ġbal": 2734,
      "ometimes": 2735,
      "Ġbuilding": 2736,
      "know": 2737,
      "Ġprevious": 2738,
      "Ġdecl": 2739,
      "ĠJohn": 2740,
      "cer": 2741,
      "Ġur": 2742,
      "Ġdivis": 2743,
      "Ġstructure": 2744,
      "ĠII": 2745,
      "reng": 2746,
      "Ġlives": 2747,
      "Ġpopular": 2748,
      "gorithm": 2749,
      "ope": 2750,
      "Ġunits": 2751,
      "imens": 2752,
      "part": 2753,
      "Ġsec": 2754,
      "Ġfeed": 2755,
      "ĠAm": 2756,
      "rown": 2757,
      "Ġsold": 2758,
      "ĠJapan": 2759,
      "Ġrelative": 2760,
      "stitute": 2761,
      "Ġpressure": 2762,
      "Ġnecessary": 2763,
      "Ġthought": 2764,
      "ĠFrench": 2765,
      "resents": 2766,
      "rame": 2767,
      "Ġlinear": 2768,
      "iment": 2769,
      "ĠAfter": 2770,
      "ift": 2771,
      "effic": 2772,
      "Ġhor": 2773,
      "edi": 2774,
      "son": 2775,
      "sp": 2776,
      "otal": 2777,
      "Ġwriting": 2778,
      "bra": 2779,
      "inct": 2780,
      "oon": 2781,
      "Ġsuff": 2782,
      "ĠSy": 2783,
      "Ġobjects": 2784,
      "nderstand": 2785,
      "Ġdirectly": 2786,
      "Ġshap": 2787,
      "Ġmeet": 2788,
      "Ġcontext": 2789,
      "ened": 2790,
      "Ġcapt": 2791,
      "Ġevidence": 2792,
      "Ġax": 2793,
      "enced": 2794,
      "Ġintegral": 2795,
      "tempt": 2796,
      "respon": 2797,
      "rad": 2798,
      "ĠLet": 2799,
      "gy": 2800,
      "Ġcontinue": 2801,
      "Ġdefin": 2802,
      "Ġconcern": 2803,
      "Ġdetail": 2804,
      "Ġtreatment": 2805,
      "Ġincreasing": 2806,
      "Ġinfluence": 2807,
      "ĠCent": 2808,
      "clusion": 2809,
      "}^{": 2810,
      "Ġmind": 2811,
      "Ġdeep": 2812,
      "Ġcompon": 2813,
      "Ġdeb": 2814,
      "Ġface": 2815,
      "ields": 2816,
      "rim": 2817,
      "ls": 2818,
      "Ġsolutions": 2819,
      "lict": 2820,
      "leep": 2821,
      "aging": 2822,
      "Ġcrucial": 2823,
      "ĠIndian": 2824,
      "Ġbusiness": 2825,
      "Ġcalculation": 2826,
      "Ġreach": 2827,
      "Ġbrain": 2828,
      "ĠMe": 2829,
      "bb": 2830,
      "ĠThen": 2831,
      "time": 2832,
      "igen": 2833,
      "Here": 2834,
      "Ġaction": 2835,
      "Ġparticip": 2836,
      "ĠUse": 2837,
      "Ġcourse": 2838,
      "ront": 2839,
      "Ġcenter": 2840,
      "Ġmem": 2841,
      "omb": 2842,
      "Sub": 2843,
      "Ġvariable": 2844,
      "Ġadapt": 2845,
      "Ġmonths": 2846,
      "Ġkg": 2847,
      "Ġminutes": 2848,
      "Ġblood": 2849,
      "ores": 2850,
      "Ġquant": 2851,
      "Ġrandom": 2852,
      "bon": 2853,
      "Ġleaders": 2854,
      "ĠNational": 2855,
      "ried": 2856,
      "plement": 2857,
      "thing": 2858,
      "irm": 2859,
      "Th": 2860,
      "Ġproperties": 2861,
      "Ġpersonal": 2862,
      "Ġreflect": 2863,
      "pite": 2864,
      "Ġdefined": 2865,
      "Ġcross": 2866,
      "ening": 2867,
      "rack": 2868,
      "Ġparticularly": 2869,
      "Ġdam": 2870,
      "Ġmanage": 2871,
      "ĠBC": 2872,
      "Ġcolumn": 2873,
      "Ġincor": 2874,
      "Ġsymptoms": 2875,
      "stitution": 2876,
      "hood": 2877,
      "Ġeffective": 2878,
      "Ġissues": 2879,
      "Ġincreased": 2880,
      "point": 2881,
      "value": 2882,
      "Ġsmaller": 2883,
      "Ġbuilt": 2884,
      "Ġtarget": 2885,
      "Ġtakes": 2886,
      "word": 2887,
      "eters": 2888,
      "Ġproduction": 2889,
      "ament": 2890,
      "Ġmoment": 2891,
      "Ġste": 2892,
      "Ġengine": 2893,
      "Ġstreng": 2894,
      "Ġbar": 2895,
      "Ġorigin": 2896,
      "Ġshows": 2897,
      "olving": 2898,
      "Ġ36": 2899,
      "Ġacceler": 2900,
      "rought": 2901,
      "izes": 2902,
      "Ġcomput": 2903,
      "raft": 2904,
      "ĠNe": 2905,
      "ĠList": 2906,
      "Ġtheory": 2907,
      "Ġ21": 2908,
      "Ġdegrees": 2909,
      "Ġstring": 2910,
      "Ġpri": 2911,
      "Ġprop": 2912,
      "One": 2913,
      "ĠMon": 2914,
      "Ġderiv": 2915,
      "iting": 2916,
      "Ġsuper": 2917,
      "elling": 2918,
      "ER": 2919,
      "alu": 2920,
      "Ġsix": 2921,
      "sec": 2922,
      "Ġprovides": 2923,
      "Ġann": 2924,
      "Ġtrade": 2925,
      "Ġoppos": 2926,
      "Ġsens": 2927,
      "Ġheat": 2928,
      "ypot": 2929,
      "Ġvert": 2930,
      "NA": 2931,
      "ĠInitial": 2932,
      "agon": 2933,
      "Ġstru": 2934,
      "Ġarticle": 2935,
      "ĠAust": 2936,
      "arily": 2937,
      "Ġmaterials": 2938,
      "Ġcut": 2939,
      "Ġprinci": 2940,
      "Ġimportance": 2941,
      "aged": 2942,
      "Ġsun": 2943,
      "28": 2944,
      "Ġfraction": 2945,
      "Ġlot": 2946,
      "Ġhumans": 2947,
      "Ġstra": 2948,
      "35": 2949,
      "By": 2950,
      "dx": 2951,
      "ĠAfrican": 2952,
      "sect": 2953,
      "Ġassociated": 2954,
      "Ġbelow": 2955,
      "['": 2956,
      "ederal": 2957,
      "Ġexpected": 2958,
      "Ġtaking": 2959,
      "ĠAss": 2960,
      "lex": 2961,
      "wh": 2962,
      "Ġpub": 2963,
      "Ġreligious": 2964,
      "Ġfish": 2965,
      "Ġmental": 2966,
      "Ġthird": 2967,
      "ixed": 2968,
      "Ġradius": 2969,
      "ĠTherefore": 2970,
      "Ġcomes": 2971,
      "iles": 2972,
      "Ġproperty": 2973,
      "ney": 2974,
      "light": 2975,
      "Ġforms": 2976,
      "lands": 2977,
      "Ġkm": 2978,
      "Ġmodels": 2979,
      "Ġpaper": 2980,
      "Ġideas": 2981,
      "ene": 2982,
      "Ġconne": 2983,
      "ulations": 2984,
      "anced": 2985,
      "racy": 2986,
      "Ġking": 2987,
      "Ġlaws": 2988,
      "On": 2989,
      "ese": 2990,
      "leb": 2991,
      "way": 2992,
      "Ġregular": 2993,
      "AT": 2994,
      "onstr": 2995,
      "Ġconsum": 2996,
      "room": 2997,
      "Ġinteger": 2998,
      "Ġload": 2999,
      "Ġcollect": 3000,
      "Ġreduce": 3001,
      "enc": 3002,
      "Ġclaim": 3003,
      "Ġactually": 3004,
      "Ġtowards": 3005,
      "Ġtre": 3006,
      "add": 3007,
      "Î¸": 3008,
      "ĠCheck": 3009,
      "style": 3010,
      "Ġteachers": 3011,
      "Ġachieve": 3012,
      "ii": 3013,
      "eterm": 3014,
      "oes": 3015,
      "Ġviol": 3016,
      "aving": 3017,
      "32": 3018,
      "wo": 3019,
      "ched": 3020,
      "ĠCar": 3021,
      "emic": 3022,
      "64": 3023,
      "ensity": 3024,
      "==": 3025,
      "Ġeffects": 3026,
      "Ġleading": 3027,
      "Ġvariables": 3028,
      "Ġregard": 3029,
      "Ġforest": 3030,
      "Ġbirds": 3031,
      "ĠGerman": 3032,
      "Ġsuccessful": 3033,
      "cles": 3034,
      "ung": 3035,
      "Ġproduce": 3036,
      "Ġrot": 3037,
      "omm": 3038,
      "iers": 3039,
      "display": 3040,
      "Ġschools": 3041,
      "Ġhabit": 3042,
      "rated": 3043,
      "Ġscience": 3044,
      "gypt": 3045,
      "wise": 3046,
      "xy": 3047,
      "Ġconvert": 3048,
      "Ġmor": 3049,
      "ming": 3050,
      "atory": 3051,
      "Ġelectric": 3052,
      "rance": 3053,
      "erve": 3054,
      "ĠÏ": 3055,
      "Ġaccording": 3056,
      "Ġthreat": 3057,
      "Ġheav": 3058,
      "Ġcritical": 3059,
      "itiz": 3060,
      "Ġpredict": 3061,
      "^{-": 3062,
      "Ġestablished": 3063,
      "Ġanaly": 3064,
      "Ġjob": 3065,
      "yth": 3066,
      "Ġdom": 3067,
      "ĠStud": 3068,
      "Ġresearchers": 3069,
      "Ġchallenges": 3070,
      "Ġfight": 3071,
      "ript": 3072,
      "ĠGo": 3073,
      "ctors": 3074,
      "Ġangles": 3075,
      "Ġlonger": 3076,
      "ey": 3077,
      "Ġet": 3078,
      "erate": 3079,
      "ĠÏĢ": 3080,
      "Ġgas": 3081,
      "Ġsuggest": 3082,
      "Ġappear": 3083,
      "66": 3084,
      "ĠSub": 3085,
      "uple": 3086,
      "ccording": 3087,
      "Ġarray": 3088,
      "ameter": 3089,
      "vere": 3090,
      "uit": 3091,
      "Ġcommunities": 3092,
      "ream": 3093,
      "hest": 3094,
      "ades": 3095,
      "Ġtrees": 3096,
      "Ġremov": 3097,
      "Ġlargest": 3098,
      "Ġtraditional": 3099,
      "uck": 3100,
      "Ġvariety": 3101,
      "ĠThat": 3102,
      "Ġhold": 3103,
      "ĠPe": 3104,
      "Ġcop": 3105,
      "ought": 3106,
      "abor": 3107,
      "dom": 3108,
      "Ġbecomes": 3109,
      "Ġjour": 3110,
      "ĠDes": 3111,
      "Ġwild": 3112,
      "Ġla": 3113,
      "isions": 3114,
      "ached": 3115,
      "ĠEgypt": 3116,
      "upp": 3117,
      "Ġrefer": 3118,
      "met": 3119,
      "Ġformed": 3120,
      "ĠPart": 3121,
      "ĠDis": 3122,
      "Ġupon": 3123,
      "ĠGet": 3124,
      "Ġtypically": 3125,
      "main": 3126,
      "Ġalmost": 3127,
      "Ġcaused": 3128,
      "Ġmiles": 3129,
      "ued": 3130,
      "ndarray": 3131,
      "ĠRed": 3132,
      "Ġglobal": 3133,
      "Ġremains": 3134,
      "Ġrepresents": 3135,
      "Ġdemonstr": 3136,
      "Ġconflict": 3137,
      "Ġsafe": 3138,
      "}\")": 3139,
      "ump": 3140,
      "Ġattempt": 3141,
      "Ġcentral": 3142,
      "undred": 3143,
      "lope": 3144,
      "Ġ90": 3145,
      "Ġdenomin": 3146,
      "ĠPres": 3147,
      "ervation": 3148,
      "ĠCanad": 3149,
      "Ġquad": 3150,
      "Ġevalu": 3151,
      "Ġcommand": 3152,
      "amm": 3153,
      "pose": 3154,
      "Ġinvolved": 3155,
      "ĠBlack": 3156,
      "Ġearth": 3157,
      "Ġinterp": 3158,
      "Ġexamples": 3159,
      "ĠState": 3160,
      "Ġaccept": 3161,
      "Ġconsist": 3162,
      "Ġallowed": 3163,
      "Ġthous": 3164,
      "ricult": 3165,
      "ĠEuropean": 3166,
      "Ġnut": 3167,
      "ĠMany": 3168,
      "ĠBo": 3169,
      "Ġstress": 3170,
      "ply": 3171,
      "Ġavoid": 3172,
      "ĠCor": 3173,
      "Ġsn": 3174,
      "uel": 3175,
      "Ġ27": 3176,
      "Ġtraining": 3177,
      "Ġfire": 3178,
      "Ġmach": 3179,
      "eration": 3180,
      "ĠHist": 3181,
      "raw": 3182,
      "ception": 3183,
      "Ġcir": 3184,
      "Ġallows": 3185,
      "amed": 3186,
      "plication": 3187,
      "new": 3188,
      "Ġalgorithm": 3189,
      "sych": 3190,
      "27": 3191,
      "Ġvalid": 3192,
      "ensive": 3193,
      "These": 3194,
      "come": 3195,
      "Ġdou": 3196,
      "Ġsal": 3197,
      "Ġuses": 3198,
      "Ġ28": 3199,
      "Ġaspect": 3200,
      "ceed": 3201,
      "aly": 3202,
      "Ġdecre": 3203,
      "fact": 3204,
      "Ġmatter": 3205,
      "Ġdigits": 3206,
      "astic": 3207,
      "Ġestablish": 3208,
      "Ġshare": 3209,
      "displaystyle": 3210,
      "ads": 3211,
      "Ġwall": 3212,
      "Ġrect": 3213,
      "odes": 3214,
      "Ġstrugg": 3215,
      "ID": 3216,
      "Ġreally": 3217,
      "AS": 3218,
      "48": 3219,
      "ometric": 3220,
      "ternative": 3221,
      "Ġappl": 3222,
      "Ġproport": 3223,
      "ĠMult": 3224,
      "Ġterrit": 3225,
      "Ġdivide": 3226,
      "Ġvirus": 3227,
      "Ġtens": 3228,
      "osa": 3229,
      "Ġstatement": 3230,
      "Ġparalle": 3231,
      "Ġslow": 3232,
      "rm": 3233,
      "Ġinstr": 3234,
      "ĠAmericans": 3235,
      "overed": 3236,
      "Ġdivided": 3237,
      "Ġidentity": 3238,
      "lation": 3239,
      "Ġcat": 3240,
      "box": 3241,
      "Ġteaching": 3242,
      "Ġstop": 3243,
      "Ġsett": 3244,
      "matrix": 3245,
      "Ġincluded": 3246,
      "Tr": 3247,
      "]:": 3248,
      "Ġincludes": 3249,
      "ĠEngland": 3250,
      "Ġsoil": 3251,
      "abilities": 3252,
      "Ġinequ": 3253,
      "Ġpowerful": 3254,
      "Ġcontent": 3255,
      "Ġrules": 3256,
      "Ġcal": 3257,
      "Ġharm": 3258,
      "Ġindependent": 3259,
      "Ġwood": 3260,
      "ancial": 3261,
      "Ġcoeffic": 3262,
      "tr": 3263,
      "Ġlate": 3264,
      "uries": 3265,
      "ynomial": 3266,
      "Ġcode": 3267,
      "Ġtalk": 3268,
      "Ġscientists": 3269,
      "Ġfreed": 3270,
      "Ġmid": 3271,
      "Ġsure": 3272,
      "ĠMay": 3273,
      "Ġlack": 3274,
      "ĠSoc": 3275,
      "Ġoutside": 3276,
      "chan": 3277,
      "Ġoperations": 3278,
      ");": 3279,
      "Ġquality": 3280,
      "Ġpriv": 3281,
      "Ġtell": 3282,
      "Ġemerg": 3283,
      "Ġcoordin": 3284,
      "Ġtransform": 3285,
      "Ġwest": 3286,
      "Ġfloat": 3287,
      "Ġbox": 3288,
      "Ġspir": 3289,
      "Ġsea": 3290,
      "Ġnation": 3291,
      "Ġmessage": 3292,
      "Ġquickly": 3293,
      "ĠCo": 3294,
      "Ġmultiply": 3295,
      "ellow": 3296,
      "Ġcreating": 3297,
      "size": 3298,
      "Ġattention": 3299,
      "Ġprogress": 3300,
      "Ġbelieved": 3301,
      "Ġsleep": 3302,
      "het": 3303,
      "Ġfeatures": 3304,
      "Ġconver": 3305,
      "go": 3306,
      "Ġceleb": 3307,
      "Ġproducts": 3308,
      "Ġhypot": 3309,
      "ground": 3310,
      "65": 3311,
      "Ġ22": 3312,
      "Ġchem": 3313,
      "thern": 3314,
      "Ġlib": 3315,
      "Ġestim": 3316,
      "Ġtrib": 3317,
      "Ġcitiz": 3318,
      "Ġones": 3319,
      "Ġservices": 3320,
      "Ġstarted": 3321,
      "Ġattack": 3322,
      "key": 3323,
      "âĢ¦": 3324,
      "isf": 3325,
      "Ġinstead": 3326,
      "Ġdoc": 3327,
      "Ġadj": 3328,
      "Ġq": 3329,
      "bit": 3330,
      "Ġexam": 3331,
      "Ġcorrespon": 3332,
      "Ġ45": 3333,
      "Ġseem": 3334,
      "fig": 3335,
      "ĠMar": 3336,
      "asc": 3337,
      "hern": 3338,
      "Ġbring": 3339,
      "ĠCong": 3340,
      "Ġidentify": 3341,
      "ĠTheir": 3342,
      "ĠEqu": 3343,
      "^(": 3344,
      "Ġbooks": 3345,
      "Ġlink": 3346,
      "Ġbr": 3347,
      "Ġheld": 3348,
      "Ġcompet": 3349,
      "ĠFirst": 3350,
      "outhern": 3351,
      "Ġbehavi": 3352,
      "Ġbasic": 3353,
      "ON": 3354,
      "cular": 3355,
      "idth": 3356,
      "Ġexplore": 3357,
      "Ġsometimes": 3358,
      "Ġ...": 3359,
      "view": 3360,
      "Ġjo": 3361,
      "Ġcamp": 3362,
      "Ġofficial": 3363,
      "Ġbill": 3364,
      "Ġwon": 3365,
      "angles": 3366,
      "Ġcontinued": 3367,
      "ounds": 3368,
      "Ġrac": 3369,
      "Ġever": 3370,
      "Ġdate": 3371,
      "But": 3372,
      "='": 3373,
      "ĠChina": 3374,
      "Ġextreme": 3375,
      "Ġnode": 3376,
      "Ġfav": 3377,
      "ĠComp": 3378,
      "\\[": 3379,
      "Ġcust": 3380,
      "Ġfamilies": 3381,
      "Ġinside": 3382,
      "Ġplaces": 3383,
      "Ġstudies": 3384,
      "Ġmoving": 3385,
      "ech": 3386,
      "29": 3387,
      "Ġdx": 3388,
      "})": 3389,
      "Ġchoose": 3390,
      "ains": 3391,
      "ĠAB": 3392,
      "ĠCal": 3393,
      "Ġwhose": 3394,
      "Ġimplement": 3395,
      "pid": 3396,
      "Ġhundred": 3397,
      "ĠAre": 3398,
      "Ġselect": 3399,
      "Ġhealthy": 3400,
      "icro": 3401,
      "Ġago": 3402,
      "bor": 3403,
      "Ġpatterns": 3404,
      "rial": 3405,
      "Ġstatus": 3406,
      "((": 3407,
      "Ġcapac": 3408,
      "Ġdistinct": 3409,
      "Ġproduced": 3410,
      "Ġkids": 3411,
      "Ġresistance": 3412,
      "orthern": 3413,
      "ault": 3414,
      "Ġbur": 3415,
      "ĊĠĠĠĠĠĠĠĠĠĠĠĠĠĠĠĠ": 3416,
      "pha": 3417,
      "Ġconcepts": 3418,
      "Ġplayed": 3419,
      "Ġraise": 3420,
      "Ġgoal": 3421,
      "Ġ23": 3422,
      "arent": 3423,
      "Ġcommunication": 3424,
      "ĠEmp": 3425,
      "Ġmotion": 3426,
      "Ġgrav": 3427,
      "dent": 3428,
      "Ġfinding": 3429,
      "._": 3430,
      "Ġmarket": 3431,
      "ĠValue": 3432,
      "Ġconduct": 3433,
      "Ġdemand": 3434,
      "Ġassess": 3435,
      "Ġful": 3436,
      "67": 3437,
      "âĤ": 3438,
      "raction": 3439,
      "Ġfollows": 3440,
      ",\"": 3441,
      "Ġbrought": 3442,
      "Ġmeters": 3443,
      "Ġpow": 3444,
      "Ġanalysis": 3445,
      "Ġheart": 3446,
      "ister": 3447,
      "fs": 3448,
      "Ġprec": 3449,
      "ĠMed": 3450,
      "Ġphot": 3451,
      "Ġeth": 3452,
      "Ġcommit": 3453,
      "Ġweek": 3454,
      "cont": 3455,
      "ber": 3456,
      "Ġsources": 3457,
      "ember": 3458,
      "aily": 3459,
      "Ġindex": 3460,
      "iter": 3461,
      "Ġstri": 3462,
      "Ġteacher": 3463,
      "Ġshown": 3464,
      "Ġrepe": 3465,
      "Ġyet": 3466,
      "']": 3467,
      "ban": 3468,
      "Ġdesigned": 3469,
      "Ġ199": 3470,
      "You": 3471,
      "Ġfigure": 3472,
      "ĠMat": 3473,
      "Ġut": 3474,
      "Ġinfe": 3475,
      "pper": 3476,
      "Ġminimum": 3477,
      "Ġintegers": 3478,
      "IN": 3479,
      "Ġsomeone": 3480,
      "Ġassum": 3481,
      "ley": 3482,
      "Ġobtain": 3483,
      "ST": 3484,
      "Ġsimplify": 3485,
      "44": 3486,
      "num": 3487,
      "uge": 3488,
      "Ġsimply": 3489,
      "Ġlooking": 3490,
      "ĠLaw": 3491,
      "ĠGreat": 3492,
      "Ġ80": 3493,
      "itle": 3494,
      "ĠAfrica": 3495,
      "Ġfrequency": 3496,
      "Ġvacc": 3497,
      "Ġproviding": 3498,
      "ĠMan": 3499,
      "Ġdifferences": 3500,
      "Ġplanet": 3501,
      "'(": 3502,
      "Ġequival": 3503,
      "ĠUnderstand": 3504,
      "ĠMake": 3505,
      "known": 3506,
      "Ġapply": 3507,
      "ĠCO": 3508,
      "illi": 3509,
      "200": 3510,
      "Ġthinking": 3511,
      "uth": 3512,
      "iques": 3513,
      "Ġsurround": 3514,
      "ilos": 3515,
      "Ġcarbon": 3516,
      "Ġderivative": 3517,
      "ĠâīĪ": 3518,
      "anish": 3519,
      "Ġgetting": 3520,
      "Ġclean": 3521,
      "Ġfinancial": 3522,
      "Ġemp": 3523,
      "Ġemb": 3524,
      "ĠDefine": 3525,
      "hel": 3526,
      "onom": 3527,
      "Ġund": 3528,
      "inf": 3529,
      "my": 3530,
      "back": 3531,
      "Ġlif": 3532,
      "Ġroots": 3533,
      "Ġ35": 3534,
      "ĠGermany": 3535,
      "Ġanimal": 3536,
      "Ġpict": 3537,
      "Ġsituation": 3538,
      "Ġbenefits": 3539,
      "ĠNo": 3540,
      "Ġworkers": 3541,
      "mon": 3542,
      "Ġjud": 3543,
      "ĠUnion": 3544,
      "Ġmiddle": 3545,
      "rast": 3546,
      "erson": 3547,
      "Ġcontact": 3548,
      "Ġbeginning": 3549,
      "itual": 3550,
      "ience": 3551,
      "Ġagricult": 3552,
      "Ġconstruct": 3553,
      "First": 3554,
      "resh": 3555,
      "ĠGu": 3556,
      "ying": 3557,
      "Ġtrain": 3558,
      "Ġrequires": 3559,
      "ĠNumber": 3560,
      "urity": 3561,
      "anks": 3562,
      "bre": 3563,
      "Ġdecimal": 3564,
      "ĠFrom": 3565,
      "Ġefforts": 3566,
      "Ġbirth": 3567,
      "Ġgreen": 3568,
      "Ġpublished": 3569,
      "Ġacceleration": 3570,
      "Ġtown": 3571,
      "ĠRiver": 3572,
      "Ġvict": 3573,
      "Ġdepend": 3574,
      "Ġclos": 3575,
      "rams": 3576,
      "ai": 3577,
      "Ġaim": 3578,
      "ĠTest": 3579,
      "minist": 3580,
      "Ġseems": 3581,
      "uff": 3582,
      "Ġslope": 3583,
      "Ġbehind": 3584,
      "Ġscale": 3585,
      "Ġlost": 3586,
      "Ġsaw": 3587,
      "ription": 3588,
      "ĠUsing": 3589,
      "hib": 3590,
      "ĠFe": 3591,
      "ĠYork": 3592,
      "Ġblock": 3593,
      "ms": 3594,
      "Ġissue": 3595,
      "tan": 3596,
      "ĠFrance": 3597,
      "aling": 3598,
      "eds": 3599,
      "Ġcapital": 3600,
      "actions": 3601,
      "Ġpoll": 3602,
      "Ġcompany": 3603,
      "Ġaccom": 3604,
      "Ġadded": 3605,
      "que": 3606,
      "Ġmiss": 3607,
      "Ġ180": 3608,
      "Ġsearch": 3609,
      "yond": 3610,
      "ĠChristian": 3611,
      "requ": 3612,
      "Ġrequest": 3613,
      "Ġice": 3614,
      "odies": 3615,
      "ildren": 3616,
      "Ġprimary": 3617,
      "Ġinches": 3618,
      "ĠNot": 3619,
      "Ġbul": 3620,
      "Ġresulting": 3621,
      "Ġrock": 3622,
      "Ġaff": 3623,
      "asons": 3624,
      "utive": 3625,
      "Ġstrength": 3626,
      "Ġir": 3627,
      "Ġsatisf": 3628,
      "ditionally": 3629,
      "Ġtransport": 3630,
      "Sim": 3631,
      "Ġnorth": 3632,
      "Ġexerc": 3633,
      "ĠOther": 3634,
      "Ġservice": 3635,
      "Ġcover": 3636,
      "vant": 3637,
      "},": 3638,
      "ĠLo": 3639,
      "irect": 3640,
      "Ġexec": 3641,
      "Ġlat": 3642,
      "da": 3643,
      "hens": 3644,
      "Ġlegal": 3645,
      "itect": 3646,
      "ictionary": 3647,
      "hesis": 3648,
      "Ġconstit": 3649,
      "Ġeat": 3650,
      "Ġ32": 3651,
      "Ġdenominator": 3652,
      "avery": 3653,
      "ĠRuss": 3654,
      "Ġdecision": 3655,
      "ĠRel": 3656,
      "Ġpractices": 3657,
      "cean": 3658,
      "Ġhistorical": 3659,
      "Ġmother": 3660,
      "ĠMin": 3661,
      "Ġthus": 3662,
      "Ġbelieve": 3663,
      "ean": 3664,
      "Ġstay": 3665,
      "Ġseg": 3666,
      "phas": 3667,
      "Ġlimited": 3668,
      "Ġrelationships": 3669,
      "input": 3670,
      "volution": 3671,
      "ĊĠĠĠĠĠĠĠĠĊĠĠĠĠĠĠĠ": 3672,
      "flo": 3673,
      "Ġhunt": 3674,
      "ĠChar": 3675,
      "Ġfractions": 3676,
      "Ġpolynomial": 3677,
      "Ġtherefore": 3678,
      "Ġopportunities": 3679,
      "Ġdoing": 3680,
      "Ġ_": 3681,
      "ulate": 3682,
      "Ġcontains": 3683,
      "Ġsort": 3684,
      "Ġperfect": 3685,
      "Ġmechan": 3686,
      "Ġcauses": 3687,
      "Ġexperiences": 3688,
      "Ġgenerally": 3689,
      "Ġtask": 3690,
      "Ġexpand": 3691,
      "icles": 3692,
      "ĠDuring": 3693,
      "Ġexactly": 3694,
      "Ġbalance": 3695,
      "Ġsite": 3696,
      "inese": 3697,
      "ici": 3698,
      "Ġmedical": 3699,
      "ĠFl": 3700,
      "Ġrepresented": 3701,
      "exic": 3702,
      "Ġround": 3703,
      "based": 3704,
      "ĠDiv": 3705,
      "//": 3706,
      "ĠTra": 3707,
      "34": 3708,
      "Ġlove": 3709,
      "Af": 3710,
      "ocks": 3711,
      "king": 3712,
      "ĠAI": 3713,
      "Ġappears": 3714,
      "ĠAng": 3715,
      "Solution": 3716,
      "Ġeconomy": 3717,
      "Ġdyn": 3718,
      "uration": 3719,
      "Ġactive": 3720,
      "izon": 3721,
      "}}{": 3722,
      "Ġfreedom": 3723,
      "Ġgrowing": 3724,
      "etermine": 3725,
      "ĠEmpire": 3726,
      "head": 3727,
      "Ġfront": 3728,
      "Ġwent": 3729,
      "Ġdiet": 3730,
      "Ġtools": 3731,
      "ĠAdd": 3732,
      "umbers": 3733,
      "Int": 3734,
      "mar": 3735,
      "Ġrise": 3736,
      "Ġ26": 3737,
      "ĠAD": 3738,
      "pri": 3739,
      "Ġspeak": 3740,
      "fty": 3741,
      "count": 3742,
      "leg": 3743,
      "ĠGreek": 3744,
      "oming": 3745,
      "Ġfemale": 3746,
      "Ġbab": 3747,
      "conds": 3748,
      "Ġarmy": 3749,
      "Ġsex": 3750,
      "Ġpoor": 3751,
      "type": 3752,
      "Ġcoast": 3753,
      "Ġcontaining": 3754,
      "elt": 3755,
      "plit": 3756,
      "Ġpsych": 3757,
      "Ġeasily": 3758,
      "Ġnight": 3759,
      "Ġdeveloping": 3760,
      "rs": 3761,
      "Ġnav": 3762,
      "rap": 3763,
      "26": 3764,
      "Ġtechniques": 3765,
      "hol": 3766,
      "Ġdigit": 3767,
      "stituting": 3768,
      "Ġdoesn": 3769,
      "Ġcompos": 3770,
      "Ġwin": 3771,
      "ĠForm": 3772,
      "izations": 3773,
      "Ġoccurs": 3774,
      "Ġactions": 3775,
      "image": 3776,
      "Ġeasy": 3777,
      "ĠCongress": 3778,
      "ashing": 3779,
      "Ġcateg": 3780,
      "pty": 3781,
      "Ġenj": 3782,
      "Ġhighly": 3783,
      "Ġcarry": 3784,
      "Ġlabor": 3785,
      "ously": 3786,
      "Ġstage": 3787,
      "Ġmathematical": 3788,
      "Ġregions": 3789,
      "Ġexpon": 3790,
      "abase": 3791,
      "Ġpolicy": 3792,
      "Ġoffer": 3793,
      "Ġaccur": 3794,
      "duc": 3795,
      "ĠPresident": 3796,
      "Ġgold": 3797,
      "ĠCount": 3798,
      "Ġimag": 3799,
      "Ġinstit": 3800,
      "Ġdaily": 3801,
      "Ġcitizens": 3802,
      "ĠCont": 3803,
      "ha": 3804,
      "Ġinn": 3805,
      "Ġinfin": 3806,
      "85": 3807,
      "Ġrecent": 3808,
      "Ġcolle": 3809,
      "arrow": 3810,
      "Ġdegree": 3811,
      "Ġadditional": 3812,
      "Ġfit": 3813,
      "ĠHere": 3814,
      "^-": 3815,
      "37": 3816,
      "Ġnote": 3817,
      "Ġinterval": 3818,
      "egin": 3819,
      "tage": 3820,
      "rael": 3821,
      "lier": 3822,
      "Ġfields": 3823,
      "At": 3824,
      "Ġsqrt": 3825,
      "igr": 3826,
      "Ġvot": 3827,
      "}$,": 3828,
      "ĠTrue": 3829,
      "infty": 3830,
      "ĠMexic": 3831,
      "Ġtend": 3832,
      "asks": 3833,
      "Ġmeasures": 3834,
      "max": 3835,
      "Ġsubtract": 3836,
      "Ġwa": 3837,
      "Ġbeyond": 3838,
      "Ġmount": 3839,
      "39": 3840,
      "Ġinsp": 3841,
      "itor": 3842,
      "yl": 3843,
      "Ġsust": 3844,
      "ĠMus": 3845,
      "Ġclassroom": 3846,
      "Ġreve": 3847,
      "__(": 3848,
      "Ġten": 3849,
      "Ġfru": 3850,
      "Ġindustry": 3851,
      "Ġbattle": 3852,
      "ĠChinese": 3853,
      "anger": 3854,
      "ln": 3855,
      "Ġsubst": 3856,
      "Ġhands": 3857,
      "enth": 3858,
      "OR": 3859,
      "Ġconstruction": 3860,
      "Ġsets": 3861,
      "ession": 3862,
      "Ġ)": 3863,
      "Ġoverall": 3864,
      "ecause": 3865,
      "Ġche": 3866,
      "AR": 3867,
      "ellig": 3868,
      "Ġthr": 3869,
      "Ġstrategies": 3870,
      "Ġsouth": 3871,
      "Ġcharge": 3872,
      "Ġtro": 3873,
      "ĠAlthough": 3874,
      "ĠSet": 3875,
      "Ġ\\\\": 3876,
      "Ġemotional": 3877,
      "Ġhost": 3878,
      "gebra": 3879,
      "ĠPo": 3880,
      "ĠFunction": 3881,
      "ĠCons": 3882,
      "Ġtrig": 3883,
      "Ġconnection": 3884,
      "Ġplane": 3885,
      "Ġenvironmental": 3886,
      "Ġcities": 3887,
      "Ġefficient": 3888,
      "ðĿ": 3889,
      "Ġblue": 3890,
      "rand": 3891,
      "Ġconcent": 3892,
      "Ġatm": 3893,
      "Ġfriends": 3894,
      "Ġalthough": 3895,
      "While": 3896,
      "Ġcurve": 3897,
      "Ġcenturies": 3898,
      "Ġprior": 3899,
      "ĠEm": 3900,
      "arv": 3901,
      "Ġhelped": 3902,
      "Ad": 3903,
      "ĠFran": 3904,
      "38": 3905,
      "used": 3906,
      "05": 3907,
      "Ġcompared": 3908,
      "Ġphilos": 3909,
      "Ġemphas": 3910,
      "oles": 3911,
      "ĠEd": 3912,
      "Ġwarm": 3913,
      "Ġgod": 3914,
      "cret": 3915,
      "Ġthing": 3916,
      "Ġapplied": 3917,
      "Ġadop": 3918,
      "Ġkil": 3919,
      "Ġpassed": 3920,
      "Ġtur": 3921,
      "Ġfoot": 3922,
      "olute": 3923,
      "enge": 3924,
      "Ġopposite": 3925,
      "vention": 3926,
      "Ġconfig": 3927,
      "comes": 3928,
      "Ġequivalent": 3929,
      "ĨĴ": 3930,
      "Ġpurpose": 3931,
      "Ġsil": 3932,
      "Ġcancer": 3933,
      "Ġimmedi": 3934,
      "Ġborn": 3935,
      "Ġenjoy": 3936,
      "Ġstore": 3937,
      "Ġdomin": 3938,
      "Ġparallel": 3939,
      "Ġlocation": 3940,
      "Ġeventually": 3941,
      "Ġengage": 3942,
      "Ġcomputer": 3943,
      "anging": 3944,
      "Ġprep": 3945,
      "Ġfederal": 3946,
      "load": 3947,
      "ĊĠĠĠĠĠĠĠĠĠĠĠĠĠĠĠĠĠĠĠ": 3948,
      "Ġscientific": 3949,
      "Ġgames": 3950,
      "Ġdog": 3951,
      "Ġappropri": 3952,
      "Ġoccup": 3953,
      "ners": 3954,
      "Ġ---": 3955,
      "Ġcourt": 3956,
      "zz": 3957,
      "^(-": 3958,
      "Cl": 3959,
      "Ġtor": 3960,
      "ĠCour": 3961,
      "olic": 3962,
      "ios": 3963,
      "init": 3964,
      "Ġdivision": 3965,
      "Ġmicro": 3966,
      "Ġreceived": 3967,
      "ĠDay": 3968,
      "Ġcombination": 3969,
      "Ġbasis": 3970,
      "Ġriver": 3971,
      "Ġinj": 3972,
      "imeter": 3973,
      "ĠâĪļ(": 3974,
      "Ġfun": 3975,
      "Ġoptions": 3976,
      "Ġprograms": 3977,
      "olved": 3978,
      "Ġincreases": 3979,
      "ĠAnt": 3980,
      "ief": 3981,
      "rig": 3982,
      "ĠÃ·": 3983,
      "amental": 3984,
      ")\\": 3985,
      "ĠMod": 3986,
      "earch": 3987,
      "Ġpeace": 3988,
      "ony": 3989,
      "Ġactual": 3990,
      "ĠAb": 3991,
      "Ġeg": 3992,
      "Ġbott": 3993,
      "anation": 3994,
      "men": 3995,
      "Ġtheorem": 3996,
      "ĠQuestion": 3997,
      "ĠAustral": 3998,
      "Ġconsequ": 3999,
      "After": 4000,
      "ĠIsrael": 4001,
      "Ġbroad": 4002,
      "Ġstraight": 4003,
      "}(": 4004,
      "ĠBritain": 4005,
      "rie": 4006,
      "Find": 4007,
      "ugust": 4008,
      "Ġarchitect": 4009,
      "itable": 4010,
      "Ġaud": 4011,
      "Ġskin": 4012,
      "Ġ1000": 4013,
      "valu": 4014,
      "Ġleaves": 4015,
      "49": 4016,
      "Ġfather": 4017,
      "Ġitems": 4018,
      "ĠEast": 4019,
      "Ġsustain": 4020,
      "yg": 4021,
      "ĠEach": 4022,
      "Ġdecisions": 4023,
      "year": 4024,
      "Ġsoon": 4025,
      "Ġassign": 4026,
      "Ġrich": 4027,
      "Ġremaining": 4028,
      "Ġneigh": 4029,
      "`.": 4030,
      "cks": 4031,
      "Ġdictionary": 4032,
      "aff": 4033,
      "Ġgender": 4034,
      "ĠArt": 4035,
      "Ġpercentage": 4036,
      "ser": 4037,
      "Ġperformance": 4038,
      "ken": 4039,
      "rary": 4040,
      "ows": 4041,
      "rapy": 4042,
      "Ġfollowed": 4043,
      "ĠJu": 4044,
      "Ġetc": 4045,
      "vey": 4046,
      "Ġhyd": 4047,
      "Ġsaf": 4048,
      "Ġadvant": 4049,
      "ES": 4050,
      "Ġcommunic": 4051,
      "Ġdiscovered": 4052,
      "cal": 4053,
      "Ġresponsible": 4054,
      "Ġapproaches": 4055,
      "Ġlocated": 4056,
      "Ã©": 4057,
      "Ġspeech": 4058,
      "Ġbit": 4059,
      "Ġdict": 4060,
      "Ġinequality": 4061,
      "Ġvisual": 4062,
      ")]": 4063,
      "Ġodd": 4064,
      "Ġhous": 4065,
      "Ġsupply": 4066,
      "Ġdimens": 4067,
      "Ġdescribed": 4068,
      "aught": 4069,
      "Ġhon": 4070,
      "Ġwalk": 4071,
      "swers": 4072,
      "itation": 4073,
      "ĠIdent": 4074,
      "Ġdefinition": 4075,
      "Ġ\"__": 4076,
      "Ġprove": 4077,
      "Ġwealth": 4078,
      "alpha": 4079,
      "imin": 4080,
      "Ġgoods": 4081,
      "Ġnames": 4082,
      "ĠGeor": 4083,
      "55": 4084,
      "haps": 4085,
      "__\":": 4086,
      "Ġdark": 4087,
      "Ġchanged": 4088,
      "Ġeducational": 4089,
      "roup": 4090,
      "orks": 4091,
      "Ġpack": 4092,
      "Ġrecomm": 4093,
      "88": 4094,
      "force": 4095,
      "Ġgave": 4096,
      "Ġseconds": 4097,
      "ĠConstitution": 4098,
      "ĠHer": 4099,
      "ameters": 4100,
      "Ġult": 4101,
      "Ġcard": 4102,
      "Ġseason": 4103,
      "âĢĿ.": 4104,
      "Ġlegis": 4105,
      "Ġchoice": 4106,
      "nal": 4107,
      "Ġopportunity": 4108,
      "Ġfair": 4109,
      "tex": 4110,
      "cip": 4111,
      "Ġmemory": 4112,
      "ĠMore": 4113,
      "AC": 4114,
      "Ġvide": 4115,
      "Ġoil": 4116,
      "Ġlived": 4117,
      "Ġmatch": 4118,
      "Ġstarting": 4119,
      "Ġuseful": 4120,
      "itch": 4121,
      "aren": 4122,
      "osing": 4123,
      "Ġmap": 4124,
      "76": 4125,
      "AB": 4126,
      "ww": 4127,
      "rote": 4128,
      "Ġgir": 4129,
      "Ġsevere": 4130,
      "Ġcustom": 4131,
      "ĠDo": 4132,
      "Ġhorizon": 4133,
      "ĠInitialize": 4134,
      "user": 4135,
      "Ġchemical": 4136,
      "ĠSpanish": 4137,
      "term": 4138,
      "Ġoutcomes": 4139,
      "ĠÎ¸": 4140,
      "Ġexc": 4141,
      "Ġincome": 4142,
      "Ġrepresentation": 4143,
      "Ġdamage": 4144,
      "Ġ70": 4145,
      "Ġpromot": 4146,
      "Ġadminist": 4147,
      "Ġsafety": 4148,
      "bl": 4149,
      "ĠSw": 4150,
      "Ġworked": 4151,
      "oration": 4152,
      "inder": 4153,
      "ager": 4154,
      "Ġquite": 4155,
      "Ġatmosp": 4156,
      "Ġimages": 4157,
      "can": 4158,
      "Ġinform": 4159,
      "Ġplaced": 4160,
      "ĠAg": 4161,
      "ĠReg": 4162,
      "Ġinsect": 4163,
      "ĠRome": 4164,
      "Ġdisplay": 4165,
      "Ġfamous": 4166,
      "Ġ$(": 4167,
      "encies": 4168,
      "Ġdied": 4169,
      "Ġpiece": 4170,
      "onic": 4171,
      "ĠDetermine": 4172,
      "Ġstructures": 4173,
      "89": 4174,
      "ĠConf": 4175,
      "Ġinternational": 4176,
      "Ġplot": 4177,
      "ĠDr": 4178,
      "pan": 4179,
      "Ġsolar": 4180,
      "Ġfa": 4181,
      "ucle": 4182,
      "Ġcam": 4183,
      "Ġconnected": 4184,
      "Ġgot": 4185,
      "://": 4186,
      "ambda": 4187,
      "ulum": 4188,
      "Ġsquares": 4189,
      "Ġrapid": 4190,
      "Ġnamed": 4191,
      "ett": 4192,
      "Ġmis": 4193,
      "ufact": 4194,
      "Some": 4195,
      "'re": 4196,
      "Ġincorrect": 4197,
      "Ġrates": 4198,
      "Ġonline": 4199,
      "Ġcircum": 4200,
      "/(": 4201,
      "bf": 4202,
      "Ġprotection": 4203,
      "iti": 4204,
      "`,": 4205,
      "ĠCanada": 4206,
      "}$$": 4207,
      "Ġeyes": 4208,
      "Ġadults": 4209,
      "ĠHistory": 4210,
      "ĠAugust": 4211,
      "Ġagree": 4212,
      "Ġpowers": 4213,
      "fully": 4214,
      "water": 4215,
      "ĠFact": 4216,
      "dt": 4217,
      "Ġsection": 4218,
      "Ġexperiment": 4219,
      "ara": 4220,
      "Ġacad": 4221,
      "Ġdiagn": 4222,
      "igenous": 4223,
      "rab": 4224,
      "Ġmention": 4225,
      "ashington": 4226,
      "Ġallowing": 4227,
      "True": 4228,
      "Ġprobably": 4229,
      "cell": 4230,
      "Ġdensity": 4231,
      "EN": 4232,
      "udd": 4233,
      "Ġpage": 4234,
      "Ġcred": 4235,
      "index": 4236,
      "Ġeggs": 4237,
      "Ġstories": 4238,
      "ĠWilli": 4239,
      "Ġpresence": 4240,
      "Ġslavery": 4241,
      "Ġreb": 4242,
      "Ġrevolution": 4243,
      "-\\": 4244,
      "Ġcompan": 4245,
      "Ġson": 4246,
      "fered": 4247,
      "apter": 4248,
      "ĠJapanese": 4249,
      "Ġearn": 4250,
      "Ġapplication": 4251,
      "ĠDep": 4252,
      "ĠSchool": 4253,
      "Ġcomponents": 4254,
      "Ġserious": 4255,
      "Ġmajority": 4256,
      "lease": 4257,
      "ĠMost": 4258,
      "ĠJewish": 4259,
      "Ġwrote": 4260,
      "change": 4261,
      "Ġevolution": 4262,
      "isms": 4263,
      "Ġempty": 4264,
      "Ġfear": 4265,
      "Ġmale": 4266,
      "igate": 4267,
      "fort": 4268,
      "oice": 4269,
      "overy": 4270,
      "Ġeveryone": 4271,
      "Ġaffected": 4272,
      "Ġmanagement": 4273,
      "Ġ29": 4274,
      "\".": 4275,
      "eed": 4276,
      "ridge": 4277,
      "Ġhimself": 4278,
      "chol": 4279,
      "Ġsoldiers": 4280,
      "Ġmedia": 4281,
      "Ġmole": 4282,
      "Ġbird": 4283,
      "ĠTwo": 4284,
      "ĠAccording": 4285,
      "partial": 4286,
      "ĠRs": 4287,
      "ĠCivil": 4288,
      "Ġdemoc": 4289,
      "amic": 4290,
      "Ġexists": 4291,
      "ota": 4292,
      "oday": 4293,
      "Ġfast": 4294,
      "ĠJan": 4295,
      "Ġoperation": 4296,
      "inations": 4297,
      "Ġgradu": 4298,
      "Ġwidth": 4299,
      "Ġep": 4300,
      "Ġearlier": 4301,
      "Ġinvolve": 4302,
      "ĠIts": 4303,
      "Ġâī¤": 4304,
      "roy": 4305,
      "ifies": 4306,
      "Ġparty": 4307,
      "Ġvoltage": 4308,
      "boxed": 4309,
      "Ġdetect": 4310,
      "eta": 4311,
      "ĠChurch": 4312,
      "ography": 4313,
      "hand": 4314,
      "ometry": 4315,
      "Ġbeaut": 4316,
      "begin": 4317,
      "ĠâĪ«": 4318,
      "Ġthousands": 4319,
      "=\\": 4320,
      "Ġvary": 4321,
      "life": 4322,
      "Ġtail": 4323,
      "ĠEven": 4324,
      "ĠSolve": 4325,
      "hing": 4326,
      "Ġcontinues": 4327,
      "Ġnetwork": 4328,
      "uary": 4329,
      "Ġcosts": 4330,
      "Ġrelatively": 4331,
      "Ġconfidence": 4332,
      "off": 4333,
      "aset": 4334,
      "42": 4335,
      "II": 4336,
      "aign": 4337,
      "values": 4338,
      "ansion": 4339,
      "Problem": 4340,
      "Ġdocument": 4341,
      "Ġtrack": 4342,
      "ned": 4343,
      "Ġcro": 4344,
      "Ġquadratic": 4345,
      "Ġstyle": 4346,
      "ext": 4347,
      "And": 4348,
      "float": 4349,
      "Ġcand": 4350,
      "Ġadding": 4351,
      "print": 4352,
      "Ġintellig": 4353,
      "Ġcollection": 4354,
      "Ġbodies": 4355,
      "Ġsoft": 4356,
      "Ġreasons": 4357,
      "Ġusage": 4358,
      "ĠEduc": 4359,
      "roduction": 4360,
      "Qu": 4361,
      "urrent": 4362,
      ".)": 4363,
      "lab": 4364,
      "Ġroom": 4365,
      "Ġscre": 4366,
      "Ġweather": 4367,
      "Ġshall": 4368,
      "ĠClass": 4369,
      "ĠFalse": 4370,
      "Ġbinary": 4371,
      "Ġmedic": 4372,
      "ĠWashington": 4373,
      "Ġrefers": 4374,
      "ĠRepublic": 4375,
      "Ġdiscrim": 4376,
      "yal": 4377,
      "ĠSpe": 4378,
      "Ġdead": 4379,
      "Ġanswers": 4380,
      "\\)": 4381,
      "ĠLear": 4382,
      "Ġfeature": 4383,
      "ĠJes": 4384,
      "uild": 4385,
      "Ġtang": 4386,
      "Ġenh": 4387,
      "length": 4388,
      "ĠEl": 4389,
      "Ġmoved": 4390,
      "orders": 4391,
      "Ġ%": 4392,
      "alities": 4393,
      "model": 4394,
      "Ġstar": 4395,
      "inally": 4396,
      "Ġcharacteristics": 4397,
      "Ġserved": 4398,
      "Ġauthority": 4399,
      "Ġvisit": 4400,
      "43": 4401,
      "Step": 4402,
      "ection": 4403,
      "Ġboard": 4404,
      "Ġmember": 4405,
      "Ġord": 4406,
      "inst": 4407,
      "Ġtriangles": 4408,
      "ĠHouse": 4409,
      "iplying": 4410,
      "Ġ2017": 4411,
      "Ġintroduced": 4412,
      "acters": 4413,
      "Ġdepending": 4414,
      "Ġupper": 4415,
      "47": 4416,
      "Ġeasier": 4417,
      "Ġpopulations": 4418,
      "Ġwinter": 4419,
      "Res": 4420,
      "ĠInst": 4421,
      "Ġobserved": 4422,
      "Ġship": 4423,
      "ee": 4424,
      "Ġbran": 4425,
      "Ġhot": 4426,
      "Ġexpressed": 4427,
      ")$.": 4428,
      "dict": 4429,
      "Ġresist": 4430,
      "artment": 4431,
      "Ġfat": 4432,
      "na": 4433,
      "Ġroll": 4434,
      "Ġchance": 4435,
      "Ġdeal": 4436,
      "ĠGovern": 4437,
      "ĠGeneral": 4438,
      "Ġindependence": 4439,
      "With": 4440,
      "illing": 4441,
      "step": 4442,
      "Another": 4443,
      "Ġinteract": 4444,
      "Ġmanufact": 4445,
      "mission": 4446,
      "Ġvoc": 4447,
      "etime": 4448,
      "Ġreceive": 4449,
      "ingu": 4450,
      "Ġfully": 4451,
      "write": 4452,
      "quare": 4453,
      "Ġversion": 4454,
      "Ġletter": 4455,
      "osis": 4456,
      "Ġdeviation": 4457,
      "Ġveget": 4458,
      "Ġletters": 4459,
      "Ġfuel": 4460,
      "ĠTrans": 4461,
      "Ġpieces": 4462,
      "96": 4463,
      "Ġeffort": 4464,
      "ĠSep": 4465,
      "].": 4466,
      "Ġfundamental": 4467,
      "Note": 4468,
      "Ġforeign": 4469,
      "rates": 4470,
      "Ġweeks": 4471,
      "Ġextra": 4472,
      "Ġbelong": 4473,
      "Ġcorresponding": 4474,
      "Ġsignificance": 4475,
      "46": 4476,
      "Ġcommonly": 4477,
      "ulated": 4478,
      "Ġasked": 4479,
      "Ġwoman": 4480,
      "ĠWestern": 4481,
      "Data": 4482,
      "ĠOct": 4483,
      "Ġabsolute": 4484,
      "Ġinterpret": 4485,
      "Ġdescribe": 4486,
      "Ġconclusion": 4487,
      "ystem": 4488,
      "95": 4489,
      "oke": 4490,
      "Ġnearly": 4491,
      "dfrac": 4492,
      "Ġera": 4493,
      "Ġsettle": 4494,
      "ĠRead": 4495,
      "Re": 4496,
      "Ġappropriate": 4497,
      "Ġalone": 4498,
      "args": 4499,
      "Ġprinciples": 4500,
      "Ġpick": 4501,
      "Ġtrying": 4502,
      "Ġchallenge": 4503,
      "urg": 4504,
      "estic": 4505,
      "Ġmultiplication": 4506,
      "ster": 4507,
      "Ġperspect": 4508,
      "Ġcycle": 4509,
      "Ġwaste": 4510,
      "Ġeye": 4511,
      "Ġbacter": 4512,
      "Ġemotions": 4513,
      "url": 4514,
      "pass": 4515,
      "Ġsuggests": 4516,
      "Ġgiving": 4517,
      "Ġcircuit": 4518,
      "Ġgoals": 4519,
      "igration": 4520,
      "Ġsounds": 4521,
      "Ġprivate": 4522,
      "ĠCourt": 4523,
      "Ġtests": 4524,
      "idents": 4525,
      "ĠSum": 4526,
      "Ġtopic": 4527,
      "Ġdanger": 4528,
      "att": 4529,
      "rong": 4530,
      "ĠRo": 4531,
      "Ġvers": 4532,
      "np": 4533,
      "arian": 4534,
      "asion": 4535,
      "=\"": 4536,
      "iny": 4537,
      "Com": 4538,
      "tered": 4539,
      "Ġrepl": 4540,
      "iciency": 4541,
      "Ġpolicies": 4542,
      "--------": 4543,
      "ris": 4544,
      "Ġ48": 4545,
      "Ġchanging": 4546,
      "Ġdiseases": 4547,
      "Ġgenerate": 4548,
      "Ġmarked": 4549,
      "Ġacqu": 4550,
      "lin": 4551,
      "Ġaspects": 4552,
      "Ġeffectively": 4553,
      "][": 4554,
      "Ġtim": 4555,
      "ĠThus": 4556,
      "Ġsac": 4557,
      "Ġperp": 4558,
      "des": 4559,
      "Ġleave": 4560,
      "Ġseparate": 4561,
      "Ġmachine": 4562,
      "ĠMarch": 4563,
      ")}": 4564,
      "iform": 4565,
      "more": 4566,
      "Ġeating": 4567,
      "Ġprocesses": 4568,
      "Ġfavor": 4569,
      "vered": 4570,
      "lement": 4571,
      "section": 4572,
      "oses": 4573,
      "Ġcoordinates": 4574,
      "oking": 4575,
      "Ġcompletely": 4576,
      "Ġtan": 4577,
      "Ġsetting": 4578,
      "Ġoccurred": 4579,
      "Ġserve": 4580,
      "care": 4581,
      "Ġspring": 4582,
      "Ġded": 4583,
      "Ġsignificantly": 4584,
      "Ġillust": 4585,
      "Ġforced": 4586,
      "Ġpresident": 4587,
      "Ġsigns": 4588,
      "ĠJews": 4589,
      "Ġdu": 4590,
      "Ġsus": 4591,
      "dig": 4592,
      "dered": 4593,
      "iffe": 4594,
      "ifically": 4595,
      "position": 4596,
      "500": 4597,
      "rical": 4598,
      "Ġnumerous": 4599,
      "ressive": 4600,
      "Ġworth": 4601,
      "ĠIntern": 4602,
      "Ġshapes": 4603,
      "ĠDi": 4604,
      "aved": 4605,
      "ĠVol": 4606,
      "aled": 4607,
      "Ġtoward": 4608,
      "cil": 4609,
      "Ġexpressions": 4610,
      "Ġtransfer": 4611,
      "Ġtuple": 4612,
      "Ġtasks": 4613,
      "Ġmotiv": 4614,
      "Ġ120": 4615,
      "ours": 4616,
      "ĠConst": 4617,
      "ĠSolution": 4618,
      "rick": 4619,
      "Ġsolid": 4620,
      "ĠTri": 4621,
      "Ġinverse": 4622,
      "Ġ((": 4623,
      "Ġremained": 4624,
      "They": 4625,
      "ino": 4626,
      "rox": 4627,
      "Ġast": 4628,
      "Ġmathematics": 4629,
      "Ġdetermined": 4630,
      "pped": 4631,
      "Ġbank": 4632,
      "Ġpun": 4633,
      "ĠGre": 4634,
      "ĠValueError": 4635,
      "ithmetic": 4636,
      "oud": 4637,
      "number": 4638,
      "ĠJune": 4639,
      "Ġjourney": 4640,
      "Ġreduced": 4641,
      "Ġcharacters": 4642,
      "31": 4643,
      "Ġhighest": 4644,
      "iforn": 4645,
      "Ġbottom": 4646,
      "CD": 4647,
      "Ġforward": 4648,
      "Ġsolving": 4649,
      "Ġimpl": 4650,
      "Ġapplications": 4651,
      "Ġjustice": 4652,
      "Ġveh": 4653,
      "rors": 4654,
      "ĠVir": 4655,
      "uman": 4656,
      "ont": 4657,
      "axis": 4658,
      "Ġrare": 4659,
      "Ġlearned": 4660,
      "Ġgoes": 4661,
      "Ġreligion": 4662,
      "Ġfigures": 4663,
      "elta": 4664,
      "Ġscore": 4665,
      "Ġbad": 4666,
      "Ġreform": 4667,
      "Ġsituations": 4668,
      "ĠJuly": 4669,
      "plify": 4670,
      "Ġlandsc": 4671,
      "Ġdatabase": 4672,
      "Ġitem": 4673,
      "ĠPre": 4674,
      "peror": 4675,
      "issions": 4676,
      "Ġwave": 4677,
      "Ġencourage": 4678,
      "Ġhope": 4679,
      "Ġnucle": 4680,
      "state": 4681,
      "ĠSm": 4682,
      "spe": 4683,
      "Ġremoved": 4684,
      "Ġrace": 4685,
      "ĠPeople": 4686,
      "Ġprofessional": 4687,
      "ĠOut": 4688,
      "Ġconsidering": 4689,
      "Ġsong": 4690,
      "ana": 4691,
      "Ġisland": 4692,
      "Ġcommer": 4693,
      "Ġinteresting": 4694,
      "Ġscen": 4695,
      "ĠSystem": 4696,
      "antic": 4697,
      "Ġedge": 4698,
      "Ġdro": 4699,
      "iable": 4700,
      "iar": 4701,
      "Ġdry": 4702,
      "Un": 4703,
      "ypes": 4704,
      "Ġcapacity": 4705,
      "Ġcampaign": 4706,
      "00000000": 4707,
      "Ġinfect": 4708,
      "Ġcharg": 4709,
      "Ġdiameter": 4710,
      "Ġcards": 4711,
      "ĠPyth": 4712,
      "lers": 4713,
      "Ġoption": 4714,
      "Ġfoss": 4715,
      "Ġcou": 4716,
      "roll": 4717,
      "Ġ500": 4718,
      "Ġformer": 4719,
      "78": 4720,
      "Ġcounter": 4721,
      "Ġinnov": 4722,
      "ball": 4723,
      "ĠRob": 4724,
      "Ġcompre": 4725,
      "crete": 4726,
      "Ġcompar": 4727,
      "ords": 4728,
      "amin": 4729,
      "Ġpairs": 4730,
      "Ġ\\*": 4731,
      "Ġexpansion": 4732,
      "Ġremember": 4733,
      "Ġwanted": 4734,
      "ĠTime": 4735,
      "Ġcontroll": 4736,
      "Ġcontinuous": 4737,
      "emy": 4738,
      "ĠSol": 4739,
      "pre": 4740,
      "List": 4741,
      "Ġvill": 4742,
      "Ġcold": 4743,
      "Is": 4744,
      "Ġdecades": 4745,
      "Ġgravity": 4746,
      "Ġtroops": 4747,
      "tery": 4748,
      "Ġmist": 4749,
      "Ġstre": 4750,
      "ĠStudents": 4751,
      "From": 4752,
      "Ġnative": 4753,
      "Ġrational": 4754,
      "Ġanx": 4755,
      "Ġburn": 4756,
      "semb": 4757,
      "ifornia": 4758,
      "ĠJesus": 4759,
      "ĠRevolution": 4760,
      "+\\": 4761,
      "Ġfeelings": 4762,
      "eding": 4763,
      "Ġdin": 4764,
      "Ġenter": 4765,
      "icular": 4766,
      "gar": 4767,
      "Ġsouthern": 4768,
      "Ġinternal": 4769,
      "Ġclasses": 4770,
      "ĠUp": 4771,
      "ĠAdditionally": 4772,
      "Ġ300": 4773,
      "Ġreported": 4774,
      "Ġslaves": 4775,
      "ĠChildren": 4776,
      "board": 4777,
      "angular": 4778,
      "Ġnorthern": 4779,
      "Ġdiverse": 4780,
      "Ġassist": 4781,
      "Ġliterature": 4782,
      "ognitive": 4783,
      "ĠÂ±": 4784,
      "SE": 4785,
      "Ġfoods": 4786,
      "areness": 4787,
      "Ġattract": 4788,
      "ĠAc": 4789,
      "ributes": 4790,
      "ĠWilliam": 4791,
      "ĠSov": 4792,
      "rupt": 4793,
      "Ġnotes": 4794,
      "68": 4795,
      "Ġgreatest": 4796,
      "Ġdisorder": 4797,
      "Ġaxis": 4798,
      "RL": 4799,
      "41": 4800,
      "Ġmer": 4801,
      "Ġpatients": 4802,
      "Ġprimarily": 4803,
      "ware": 4804,
      "ĠBat": 4805,
      "Ġsym": 4806,
      "ĠRem": 4807,
      "me": 4808,
      "Ġsumm": 4809,
      "ĠHealth": 4810,
      "Ġcovered": 4811,
      "iring": 4812,
      "ternal": 4813,
      "Ġdidn": 4814,
      "ĠAsia": 4815,
      "rogen": 4816,
      "hold": 4817,
      "ĠLat": 4818,
      "pril": 4819,
      "ibly": 4820,
      "osure": 4821,
      "Ġpurch": 4822,
      "$$\\": 4823,
      "cm": 4824,
      "sub": 4825,
      "Ġcomponent": 4826,
      "Ġos": 4827,
      "uzz": 4828,
      "Ġvalu": 4829,
      "alled": 4830,
      "cest": 4831,
      "Ġstrategy": 4832,
      "Ġmeant": 4833,
      "ĠAtt": 4834,
      "Ġrelation": 4835,
      "ĠDict": 4836,
      "dat": 4837,
      "Ġreview": 4838,
      "Ġwidely": 4839,
      "do": 4840,
      "RE": 4841,
      "^{\\": 4842,
      "Ġsentence": 4843,
      "AN": 4844,
      "Ġkilled": 4845,
      "Ġcoefficient": 4846,
      "Ġeverything": 4847,
      "Ġvectors": 4848,
      "ĠâĨĴ": 4849,
      "Ġbenefit": 4850,
      "ologists": 4851,
      "asty": 4852,
      "Ġdepends": 4853,
      "zing": 4854,
      "Ġdestroy": 4855,
      "ĠHol": 4856,
      "Ġvertical": 4857,
      "Ġestimate": 4858,
      "Ġdefe": 4859,
      "ĠExpl": 4860,
      "mathbb": 4861,
      "ĠOver": 4862,
      "Ġcong": 4863,
      "Ġtesting": 4864,
      "Ġpen": 4865,
      "orial": 4866,
      "Ġcompanies": 4867,
      "ĠCalifornia": 4868,
      "Ġisol": 4869,
      "Ġfaith": 4870,
      "yd": 4871,
      "Ġsummer": 4872,
      "Ġperiods": 4873,
      "Ġhypothesis": 4874,
      "AD": 4875,
      "Frame": 4876,
      "igma": 4877,
      "Ġrh": 4878,
      "agonal": 4879,
      "being": 4880,
      "useum": 4881,
      "Ġbecoming": 4882,
      "riculum": 4883,
      "ander": 4884,
      "Ġplayer": 4885,
      "Ġvideo": 4886,
      "LE": 4887,
      "iverse": 4888,
      "tee": 4889,
      "ĠPa": 4890,
      "ĠCath": 4891,
      "ilit": 4892,
      "Ġwat": 4893,
      "ĠPrint": 4894,
      "Ġinfection": 4895,
      "Ġcultures": 4896,
      "liament": 4897,
      "Ġmut": 4898,
      "Ġsmallest": 4899,
      "Ġstone": 4900,
      "Ġfasc": 4901,
      "reci": 4902,
      "56": 4903,
      "Ġocean": 4904,
      "Ġpan": 4905,
      "Ġreferred": 4906,
      "tember": 4907,
      "izer": 4908,
      "Ġvital": 4909,
      "Ġesc": 4910,
      "Example": 4911,
      "uk": 4912,
      "Ġflood": 4913,
      "Ġinh": 4914,
      "cosystem": 4915,
      "Ġolder": 4916,
      "Ġphilosoph": 4917,
      "'ll": 4918,
      "rome": 4919,
      "Ġreached": 4920,
      "gin": 4921,
      "Ġastr": 4922,
      "Ġstruggle": 4923,
      "hi": 4924,
      "Ġproportion": 4925,
      "Ġatmosphere": 4926,
      "Ġminor": 4927,
      "uls": 4928,
      "Ġacademic": 4929,
      "Mod": 4930,
      "Ġfixed": 4931,
      "Ġrein": 4932,
      "ĠHar": 4933,
      "Ġurban": 4934,
      "ĠHand": 4935,
      "usion": 4936,
      "Ġlabel": 4937,
      "Ġreturns": 4938,
      "reed": 4939,
      "]):": 4940,
      "Ġweak": 4941,
      "}^": 4942,
      "Substituting": 4943,
      "Ġtemperatures": 4944,
      "ĠPal": 4945,
      "cel": 4946,
      "Ġpounds": 4947,
      "ĠID": 4948,
      "ilater": 4949,
      "Ġcarried": 4950,
      "ham": 4951,
      "Ġpicture": 4952,
      "Ġadvance": 4953,
      "string": 4954,
      "Ġinfluenced": 4955,
      "Ġsem": 4956,
      "Ġconservation": 4957,
      "Ġrectangle": 4958,
      "ĠMars": 4959,
      "Ġsupported": 4960,
      "Ġaccurate": 4961,
      "ĠTurn": 4962,
      "Ġlesson": 4963,
      "ĠExp": 4964,
      "rant": 4965,
      "Ġsave": 4966,
      "Ġhorizontal": 4967,
      "iments": 4968,
      "Ġ75": 4969,
      "ev": 4970,
      "poses": 4971,
      "Ġstars": 4972,
      "Ġvirt": 4973,
      "oken": 4974,
      "Ġpromote": 4975,
      "vec": 4976,
      "iff": 4977,
      "Ġ64": 4978,
      "Ġhearing": 4979,
      "ĠSen": 4980,
      "mathbf": 4981,
      "Ġterritory": 4982,
      "river": 4983,
      "ĠDem": 4984,
      "Ġtru": 4985,
      "Ġlaun": 4986,
      "ĠArea": 4987,
      "Ġrob": 4988,
      "PI": 4989,
      "ĊĠĠĠĠĠĠĠĠĠĠĠĠĠĠĠĠĠĠĠĠ": 4990,
      "cember": 4991,
      "Ġsociet": 4992,
      "ondon": 4993,
      "Ġdouble": 4994,
      "81": 4995,
      "ĠIdentify": 4996,
      "Ġbuildings": 4997,
      "oted": 4998,
      "riction": 4999,
      "plifying": 5000,
      "Ġbool": 5001,
      "Ġindustrial": 5002,
      "ĠNow": 5003,
      "Ġhuge": 5004,
      "Ġagg": 5005,
      "Ġbra": 5006,
      "ola": 5007,
      "enty": 5008,
      "Ġconvers": 5009,
      "placement": 5010,
      "Ġprinciple": 5011,
      "Ġremove": 5012,
      "Ġmission": 5013,
      "Ġmovements": 5014,
      "Ġfort": 5015,
      "ague": 5016,
      "Ġhabitat": 5017,
      "ensor": 5018,
      "Ġchurch": 5019,
      "Ġdivers": 5020,
      "Ġ\\]": 5021,
      "Ġconstitution": 5022,
      "Ġconclud": 5023,
      "Ġseven": 5024,
      "Ġgenetic": 5025,
      "ĠRec": 5026,
      "Ġhom": 5027,
      "Ġhappens": 5028,
      "Ġteeth": 5029,
      "Ġhelping": 5030,
      "Ġdepth": 5031,
      "Ġcollabor": 5032,
      "Ġquantity": 5033,
      "01": 5034,
      "Ġanything": 5035,
      "lambda": 5036,
      "lies": 5037,
      "ĠPhil": 5038,
      "ĠApril": 5039,
      "Ġdru": 5040,
      "ancy": 5041,
      "Ġcube": 5042,
      "aults": 5043,
      "Ġviolence": 5044,
      "Ġsubstitute": 5045,
      "Ġtitle": 5046,
      "Ġsites": 5047,
      "Ġestimated": 5048,
      "ded": 5049,
      "Ġfriend": 5050,
      "Ġlayer": 5051,
      "ĠTheorem": 5052,
      "Ġecosystem": 5053,
      "Ġvertex": 5054,
      "Ġpd": 5055,
      "Ġhappen": 5056,
      "Ġideal": 5057,
      "airs": 5058,
      "Ġ31": 5059,
      "ĠDav": 5060,
      "Ġlen": 5061,
      "west": 5062,
      "Ġcontrast": 5063,
      "87": 5064,
      "âĢĿ,": 5065,
      "ĠNative": 5066,
      "ube": 5067,
      "ober": 5068,
      "Ġplaying": 5069,
      "ĠMethod": 5070,
      "Ġshared": 5071,
      "osen": 5072,
      "Ġevaluate": 5073,
      "ĠExamples": 5074,
      "crib": 5075,
      "Ġalgebra": 5076,
      "ria": 5077,
      "Ġadvoc": 5078,
      "Ġschol": 5079,
      "84": 5080,
      "ĠJanuary": 5081,
      "Ġtruth": 5082,
      "Ġprojects": 5083,
      "Ġbaby": 5084,
      "Ġiron": 5085,
      "ĠÎ¼": 5086,
      "anged": 5087,
      "Ġsymmet": 5088,
      "ĠWrite": 5089,
      "ĠSun": 5090,
      "Ġclosed": 5091,
      "Ġdivisible": 5092,
      "Ġinvent": 5093,
      "Ġleadership": 5094,
      "ĠMass": 5095,
      "Ġcool": 5096,
      "ĠSeptember": 5097,
      "Ġtold": 5098,
      "igation": 5099,
      "Ġinterests": 5100,
      "ama": 5101,
      "Ġprofit": 5102,
      "Ġships": 5103,
      "Ġreaction": 5104,
      "Ġeight": 5105,
      "Ġfinally": 5106,
      "Ġanti": 5107,
      "Ġleader": 5108,
      "ĠÎĶ": 5109,
      "rier": 5110,
      "Ġcompare": 5111,
      "ĠLine": 5112,
      "Ġincorpor": 5113,
      "ĠBar": 5114,
      "Ġadult": 5115,
      "ĠWhe": 5116,
      "Ġvaluable": 5117,
      "Ġpositions": 5118,
      "iful": 5119,
      "rating": 5120,
      "Ġcreation": 5121,
      "Ġdevice": 5122,
      "aste": 5123,
      "rew": 5124,
      "Ġillness": 5125,
      "ulas": 5126,
      "ĠScience": 5127,
      "config": 5128,
      "Ġgard": 5129,
      "ĠArmy": 5130,
      "Ġslave": 5131,
      "Ġrunning": 5132,
      "Ġturned": 5133,
      "Then": 5134,
      ")`": 5135,
      "Ġmeasured": 5136,
      "ica": 5137,
      "Ġunknown": 5138,
      "tles": 5139,
      "Ġpal": 5140,
      "Ġgets": 5141,
      "Ġotherwise": 5142,
      "Ġroad": 5143,
      "ĠSoviet": 5144,
      "====": 5145,
      "plications": 5146,
      "Ġrecognize": 5147,
      "Ġcolors": 5148,
      "During": 5149,
      "ĠMexico": 5150,
      "roduct": 5151,
      "ĠDNA": 5152,
      "che": 5153,
      "Ġque": 5154,
      "ronic": 5155,
      "Ġequality": 5156,
      "erved": 5157,
      "Ġwrong": 5158,
      "Ġcoming": 5159,
      "?**": 5160,
      "Ġfrequently": 5161,
      "Ġprey": 5162,
      "icks": 5163,
      "ĠSur": 5164,
      "Ġheavy": 5165,
      "Ġcombined": 5166,
      "Ġvote": 5167,
      "ĠSecond": 5168,
      "Des": 5169,
      "Ġguid": 5170,
      "inks": 5171,
      "Ġlanguages": 5172,
      "Ġconsequences": 5173,
      "Ġsurvive": 5174,
      "Ġexercise": 5175,
      "och": 5176,
      "phi": 5177,
      "uses": 5178,
      "perial": 5179,
      "Ġpractical": 5180,
      "ĠDecember": 5181,
      "Ġexperienced": 5182,
      "Ġrespectively": 5183,
      "63": 5184,
      "Ġprefer": 5185,
      "Ġadjust": 5186,
      "Ġmag": 5187,
      "Ġlands": 5188,
      "Field": 5189,
      "ĠEducation": 5190,
      "Ġnations": 5191,
      "eper": 5192,
      "Ġextract": 5193,
      "Ġarrange": 5194,
      "Ġvertices": 5195,
      "ĠLondon": 5196,
      "ĠOf": 5197,
      "Ġdetails": 5198,
      "Ġnothing": 5199,
      "Ġbackground": 5200,
      "ĠBas": 5201,
      "72": 5202,
      "Ġ150": 5203,
      "oe": 5204,
      "Ġbeliefs": 5205,
      "Ġmagnitude": 5206,
      "Ġcomplexity": 5207,
      "ĠDec": 5208,
      "anges": 5209,
      "Ġnews": 5210,
      "append": 5211,
      "Ġ400": 5212,
      "Ġsubt": 5213,
      "clusive": 5214,
      "Ġshowed": 5215,
      "ologies": 5216,
      "Ġperhaps": 5217,
      "ĠJust": 5218,
      "Im": 5219,
      "aching": 5220,
      "Ġsignal": 5221,
      "ociation": 5222,
      "Ġinsects": 5223,
      "Ġnumerator": 5224,
      "Ġforests": 5225,
      "Ġconversion": 5226,
      "Ġintelligence": 5227,
      "wide": 5228,
      "Ġopin": 5229,
      "era": 5230,
      "dy": 5231,
      "range": 5232,
      "Ġdecided": 5233,
      "Ġdoub": 5234,
      "Ġcontribute": 5235,
      "Ġyellow": 5236,
      "mitted": 5237,
      "essel": 5238,
      "Ġvast": 5239,
      "Ġspent": 5240,
      "Ġgirls": 5241,
      "Ġthick": 5242,
      "ĠTur": 5243,
      "efore": 5244,
      "Ġdiscover": 5245,
      "Ġfaced": 5246,
      "ĠHen": 5247,
      "inking": 5248,
      "Ġreact": 5249,
      "Ġpurs": 5250,
      "Ġpatient": 5251,
      "ĠCity": 5252,
      "inating": 5253,
      "Ġhomes": 5254,
      "orean": 5255,
      "Ġnest": 5256,
      "ml": 5257,
      "CO": 5258,
      "digit": 5259,
      "run": 5260,
      "Ġnovel": 5261,
      "ĠRa": 5262,
      "Ġunf": 5263,
      "AL": 5264,
      "Ġliqu": 5265,
      "Ġvision": 5266,
      "Ġtherapy": 5267,
      "Ġchallenging": 5268,
      "Ġshift": 5269,
      "Ġcolonial": 5270,
      "temp": 5271,
      "Ġ,": 5272,
      "ancing": 5273,
      "ĠNumbers": 5274,
      "Ġign": 5275,
      "Ġanalyze": 5276,
      "hist": 5277,
      "ouncil": 5278,
      "Ġadvantage": 5279,
      "ĠApply": 5280,
      "asure": 5281,
      "iability": 5282,
      "69": 5283,
      "Ġskill": 5284,
      "Ġchoices": 5285,
      "Ġprot": 5286,
      "tes": 5287,
      "62": 5288,
      "ĠBecause": 5289,
      "ĠDist": 5290,
      "ormal": 5291,
      "Ġeast": 5292,
      "Ġfram": 5293,
      "Ġnarr": 5294,
      "Ġrepresenting": 5295,
      "Ġorganization": 5296,
      "arser": 5297,
      "Ġmostly": 5298,
      "Ġspect": 5299,
      "encing": 5300,
      "Ġbillion": 5301,
      "arithm": 5302,
      "Ġconv": 5303,
      "Ġalternative": 5304,
      "Ġlinked": 5305,
      "Ġcomprehens": 5306,
      "Ġplays": 5307,
      "endicular": 5308,
      "Ġmaster": 5309,
      "IT": 5310,
      "ĠLa": 5311,
      "Ġtopics": 5312,
      "Ġcoin": 5313,
      "Ġproof": 5314,
      "Ġrail": 5315,
      "Sh": 5316,
      "apping": 5317,
      "ags": 5318,
      "bar": 5319,
      "VID": 5320,
      "79": 5321,
      "Ġtwice": 5322,
      "Ġsecurity": 5323,
      "Ġleaving": 5324,
      "Pl": 5325,
      "ifferent": 5326,
      "ĠOctober": 5327,
      "Ġpaint": 5328,
      "ĠAustralia": 5329,
      "ĠRom": 5330,
      "Ġassume": 5331,
      "ĠYour": 5332,
      "Ġ+=": 5333,
      "Ġadvanced": 5334,
      "uracy": 5335,
      "Ġequip": 5336,
      "Ġelimin": 5337,
      "Ġproced": 5338,
      "Ġfarmers": 5339,
      "Ġpurposes": 5340,
      "Over": 5341,
      "idden": 5342,
      "Ġsurpr": 5343,
      "Â³": 5344,
      "ovember": 5345,
      "astern": 5346,
      "xygen": 5347,
      "iance": 5348,
      "Ġleads": 5349,
      "dir": 5350,
      "ena": 5351,
      "Ġmentioned": 5352,
      "cious": 5353,
      "Ġdomain": 5354,
      "Ġancest": 5355,
      "yram": 5356,
      "since": 5357,
      "ĠJames": 5358,
      "Ġappoint": 5359,
      "Ġconsists": 5360,
      "No": 5361,
      "Ġunivers": 5362,
      "Ġphase": 5363,
      "Ġrain": 5364,
      "Ġreality": 5365,
      "Ġlengths": 5366,
      "Ġidentified": 5367,
      "ologist": 5368,
      "atus": 5369,
      "ĠWork": 5370,
      "Ġremainder": 5371,
      "Ġexisting": 5372,
      "with": 5373,
      "Ġcyl": 5374,
      "ilateral": 5375,
      "Ġfost": 5376,
      "valuate": 5377,
      "bru": 5378,
      "Ġpartial": 5379,
      "Ġiniti": 5380,
      "Ġmi": 5381,
      "ĠData": 5382,
      "book": 5383,
      "Ġdrawing": 5384,
      "Ġid": 5385,
      ")$,": 5386,
      "Ġlessons": 5387,
      "Ġspecified": 5388,
      "ĠCommun": 5389,
      "Why": 5390,
      "Ġfalse": 5391,
      "imize": 5392,
      "ailed": 5393,
      "ĠBudd": 5394,
      "Ġraised": 5395,
      "ension": 5396,
      "mark": 5397,
      "nic": 5398,
      "Ġtransl": 5399,
      "ĠPort": 5400,
      "Ġextremely": 5401,
      "oin": 5402,
      "Ġphen": 5403,
      "Ġsubsequ": 5404,
      "Not": 5405,
      "mathrm": 5406,
      "57": 5407,
      "ĠSu": 5408,
      "Ġpet": 5409,
      "Ġensuring": 5410,
      "Ġbuy": 5411,
      "Ar": 5412,
      "Ġtaught": 5413,
      "Ġmo": 5414,
      "Ġanxiety": 5415,
      "Ġconfirm": 5416,
      "Ġmob": 5417,
      "ĠThrough": 5418,
      "Ġdividing": 5419,
      "Ind": 5420,
      "info": 5421,
      "Ġdie": 5422,
      "Ġfoundation": 5423,
      "down": 5424,
      "ĠGiven": 5425,
      "Ġseek": 5426,
      "cessary": 5427,
      "Ġowners": 5428,
      "Ġshar": 5429,
      "Ġenvironments": 5430,
      "ails": 5431,
      "Ġsurvival": 5432,
      "circ": 5433,
      "ĠMuslim": 5434,
      "Ġcast": 5435,
      "Ġpaid": 5436,
      "ĠMiddle": 5437,
      "Ġgrid": 5438,
      "Ġglass": 5439,
      "rief": 5440,
      "Ġagricultural": 5441,
      "Ġmoves": 5442,
      "Ġrelevant": 5443,
      "Ġempire": 5444,
      "Ġcognitive": 5445,
      "Can": 5446,
      "const": 5447,
      "ĠMiss": 5448,
      "Ġwaves": 5449,
      "Ġprotein": 5450,
      "valid": 5451,
      "Ġdefine": 5452,
      "Ġdigital": 5453,
      "Ġlegacy": 5454,
      "see": 5455,
      "ĠSocial": 5456,
      "Ġyourself": 5457,
      "Ġsurrounding": 5458,
      "Ġmol": 5459,
      "Ġbacteria": 5460,
      "ĠDefaults": 5461,
      "Ġstandards": 5462,
      "ĠBra": 5463,
      "ĠLib": 5464,
      "Ġsand": 5465,
      "Ġswe": 5466,
      "ĠInstead": 5467,
      "Ġcontract": 5468,
      "Ġprices": 5469,
      "54": 5470,
      "Ġoffic": 5471,
      "Ġcausing": 5472,
      "ĠMath": 5473,
      "Ġnotice": 5474,
      "Ġcloth": 5475,
      "tem": 5476,
      "Ġexposure": 5477,
      "ĠResearch": 5478,
      "Ġtechnique": 5479,
      "[\"": 5480,
      "Ġconqu": 5481,
      "Ġrepeated": 5482,
      "Ġcurriculum": 5483,
      "Ġracial": 5484,
      "Ġmagnetic": 5485,
      "ĠYear": 5486,
      "Ġnull": 5487,
      "otic": 5488,
      "ĠLog": 5489,
      "Ġmamm": 5490,
      ")*": 5491,
      "Ġstarts": 5492,
      "____": 5493,
      "Ġinstruments": 5494,
      "which": 5495,
      ".\"\"\"": 5496,
      "Ġpreviously": 5497,
      "Ġcore": 5498,
      "Ġedges": 5499,
      "ky": 5500,
      "Ġparticles": 5501,
      "Ġnutri": 5502,
      "Ġclim": 5503,
      "ees": 5504,
      "ĠPat": 5505,
      "Ġ[]": 5506,
      "Ġrecognized": 5507,
      "ĠTotal": 5508,
      "Ġroles": 5509,
      "lor": 5510,
      "Ġimmediately": 5511,
      "ĠCentral": 5512,
      "Ġobtained": 5513,
      "ga": 5514,
      "Ġassert": 5515,
      "Ġcolonies": 5516,
      "Ġunne": 5517,
      "Ġtrust": 5518,
      "bruary": 5519,
      "Ġkept": 5520,
      "Ġlargely": 5521,
      "Ġprison": 5522,
      "Ġdespite": 5523,
      "Ġmarg": 5524,
      "ĠExt": 5525,
      "related": 5526,
      "Ġplayers": 5527,
      "ossible": 5528,
      "ename": 5529,
      "Ġspiritual": 5530,
      "leq": 5531,
      "ford": 5532,
      "Ġbehaviors": 5533,
      "Ġreference": 5534,
      "Ġhit": 5535,
      "Ġexistence": 5536,
      "Ġlogging": 5537,
      "Ġfeeling": 5538,
      "Ġisn": 5539,
      "Ġshowing": 5540,
      "ressed": 5541,
      "Ġhair": 5542,
      "Ġplat": 5543,
      "ĠMary": 5544,
      "Ġawareness": 5545,
      "aded": 5546,
      "Ġtraditions": 5547,
      "road": 5548,
      "ĠWhy": 5549,
      "Ġfocused": 5550,
      "Ġoxygen": 5551,
      "ĠURL": 5552,
      "Ġimmune": 5553,
      "ED": 5554,
      "IV": 5555,
      "Ġdoctor": 5556,
      "Ġdepict": 5557,
      "ĠGeorge": 5558,
      "gu": 5559,
      "ĠNovember": 5560,
      "Ġreducing": 5561,
      "ĠBoth": 5562,
      "Ġoffice": 5563,
      "%.": 5564,
      "Are": 5565,
      "ĠVirgin": 5566,
      "raint": 5567,
      "ĠOpt": 5568,
      "Ġdrawn": 5569,
      "med": 5570,
      "Ġparameters": 5571,
      "Ġpresented": 5572,
      "Ġfaster": 5573,
      "Ġsufficient": 5574,
      "Ġexhib": 5575,
      "Ġhear": 5576,
      "Ġcommercial": 5577,
      "cs": 5578,
      "Ġparties": 5579,
      "Ġarguments": 5580,
      "Ġgrass": 5581,
      "Ġchosen": 5582,
      "Ġcalculations": 5583,
      "Ġannual": 5584,
      "Ġdiss": 5585,
      "rition": 5586,
      "Ġmotor": 5587,
      "Ġgenerations": 5588,
      "Ġaware": 5589,
      "Ġclearly": 5590,
      "rice": 5591,
      "52": 5592,
      "Ġdinosa": 5593,
      "Ġtiss": 5594,
      "field": 5595,
      "Ġexchange": 5596,
      "Ġunc": 5597,
      "98": 5598,
      "Ġspecifically": 5599,
      "Ġmassive": 5600,
      "ĠMultiply": 5601,
      "hips": 5602,
      "ping": 5603,
      "acing": 5604,
      "ĠUnderstanding": 5605,
      "Ġslight": 5606,
      "Ġfle": 5607,
      "Ġcry": 5608,
      "Ġuniform": 5609,
      "ĠâĪł": 5610,
      "Calcul": 5611,
      "Ġ<=": 5612,
      "Ġ?": 5613,
      "Ġwestern": 5614,
      "Ġfloor": 5615,
      "Ġmyth": 5616,
      "Ġfelt": 5617,
      "going": 5618,
      "Ġformation": 5619,
      "Ġapart": 5620,
      "omas": 5621,
      "Ġpand": 5622,
      "IC": 5623,
      "ructure": 5624,
      "Ġfert": 5625,
      "ĠLou": 5626,
      "Ġunnecessary": 5627,
      "opes": 5628,
      "Ġcandid": 5629,
      "Ġwalls": 5630,
      "Ġargument": 5631,
      "Ġimplies": 5632,
      "urally": 5633,
      "Ġwatch": 5634,
      "Ġfif": 5635,
      "Ġonto": 5636,
      "ttps": 5637,
      "Ġbrother": 5638,
      "Ġcoefficients": 5639,
      "ped": 5640,
      "Ġpoet": 5641,
      "Ġautom": 5642,
      "ĠMc": 5643,
      "Ġcolumns": 5644,
      "ĠAC": 5645,
      "Ġformat": 5646,
      "Ġrewrite": 5647,
      "iate": 5648,
      "Ġlandscape": 5649,
      "Ġ42": 5650,
      "Ġmomentum": 5651,
      "ĠPoint": 5652,
      "Ġ37": 5653,
      "Ġdiscovery": 5654,
      "hetic": 5655,
      "ĠCOVID": 5656,
      "za": 5657,
      "Ġorganizations": 5658,
      "stood": 5659,
      "Ġwebs": 5660,
      "ĠCatholic": 5661,
      "Ġmainly": 5662,
      "Ġabsor": 5663,
      "Ġcurrently": 5664,
      "Many": 5665,
      "tra": 5666,
      "Ġgeneration": 5667,
      "Ġpromin": 5668,
      "Ġstation": 5669,
      "abul": 5670,
      "ĠMy": 5671,
      "Ġhappy": 5672,
      "ether": 5673,
      "Ġconcerns": 5674,
      "Ġshell": 5675,
      "Ġgrant": 5676,
      "ĠSan": 5677,
      "isation": 5678,
      "Ġinstitutions": 5679,
      "Ġdiscussion": 5680,
      "Ġpup": 5681,
      "Ġcomfort": 5682,
      "Ġkin": 5683,
      "Ġkn": 5684,
      "Ġdram": 5685,
      "ĠArch": 5686,
      "All": 5687,
      "Ġmouth": 5688,
      "fil": 5689,
      "Ġequipment": 5690,
      "Ġalt": 5691,
      "la": 5692,
      "Ġchain": 5693,
      "Ġdiag": 5694,
      "Ġmoral": 5695,
      "rum": 5696,
      "Ġweap": 5697,
      "ĠHigh": 5698,
      "Ġstim": 5699,
      "rations": 5700,
      "ĠInter": 5701,
      "Ġevolved": 5702,
      "Number": 5703,
      ")}{": 5704,
      "Ġstatements": 5705,
      "Ġflight": 5706,
      "Ġmel": 5707,
      "ille": 5708,
      "Ġready": 5709,
      "ibilities": 5710,
      "([": 5711,
      "Ġsought": 5712,
      "ĠConvert": 5713,
      "Ġperpendicular": 5714,
      "ĠMount": 5715,
      "Ġmixed": 5716,
      "Ġplans": 5717,
      "urt": 5718,
      "Ġ33": 5719,
      "Ġartists": 5720,
      "Ġappreci": 5721,
      "istry": 5722,
      "Ġpossess": 5723,
      "ĠItaly": 5724,
      "Ġpredators": 5725,
      "Ġtrac": 5726,
      "Ġincreasingly": 5727,
      "ĠOnce": 5728,
      "ourage": 5729,
      "bed": 5730,
      "ĠQue": 5731,
      "Ġpros": 5732,
      "Ġcommunicate": 5733,
      "Although": 5734,
      "Ġengineering": 5735,
      "ĠPress": 5736,
      "Ġdoll": 5737,
      "level": 5738,
      "oding": 5739,
      "Ġaffects": 5740,
      "iders": 5741,
      "Ġmetal": 5742,
      "Ġguide": 5743,
      "ĠUK": 5744,
      "Ġdifferential": 5745,
      "ĠKe": 5746,
      "iling": 5747,
      "Ġec": 5748,
      "Ġoffers": 5749,
      "Ġlimits": 5750,
      "Ġpush": 5751,
      "Ġplanning": 5752,
      "istan": 5753,
      "oul": 5754,
      "Ġdiversity": 5755,
      "no": 5756,
      "Ġstock": 5757,
      "Ġ//": 5758,
      ")/(": 5759,
      "cipal": 5760,
      "ĠFebruary": 5761,
      "ĠProg": 5762,
      "Ġindeed": 5763,
      "():": 5764,
      "house": 5765,
      "ĠLearning": 5766,
      "Ġphenomen": 5767,
      "Ġdiscrimination": 5768,
      "Ġabilities": 5769,
      "Ġclosely": 5770,
      "ĠPers": 5771,
      "cast": 5772,
      "ĠImp": 5773,
      "Ġtreated": 5774,
      "ĠSam": 5775,
      "ĠProper": 5776,
      "Ġlik": 5777,
      "alt": 5778,
      "ĠSpain": 5779,
      "Ġft": 5780,
      "Ġseeds": 5781,
      "Ġspot": 5782,
      "Ġdimensions": 5783,
      "ĠIr": 5784,
      "Ġframe": 5785,
      "Ġfresh": 5786,
      "Ġperspective": 5787,
      "Ġefficiency": 5788,
      "ĠSimplify": 5789,
      "venue": 5790,
      "())": 5791,
      "Ġreturned": 5792,
      "amil": 5793,
      "Ġvaccine": 5794,
      "process": 5795,
      "ervice": 5796,
      "Ġinfinite": 5797,
      "eros": 5798,
      "Ġindicates": 5799,
      "Ġlegisl": 5800,
      "Ġexposed": 5801,
      "Ġneighb": 5802,
      "||": 5803,
      "aint": 5804,
      "Ġflat": 5805,
      "Ġsubjects": 5806,
      "insett": 5807,
      "Ġhundreds": 5808,
      "ĠHenry": 5809,
      "rian": 5810,
      "ĠIsland": 5811,
      "ipped": 5812,
      "Ġtribes": 5813,
      "Ġdy": 5814,
      "ĠPark": 5815,
      "eries": 5816,
      "abits": 5817,
      "Ġhappened": 5818,
      "ĠLatin": 5819,
      "Ġencount": 5820,
      "Ġgeometric": 5821,
      "Ġtangent": 5822,
      "ulner": 5823,
      "86": 5824,
      "EM": 5825,
      "Ġemissions": 5826,
      "ĠException": 5827,
      "rows": 5828,
      "Ġtouch": 5829,
      "Ġdevices": 5830,
      "ternatively": 5831,
      "ĠDespite": 5832,
      "works": 5833,
      "Ġresponsibility": 5834,
      "Ġdut": 5835,
      "tempor": 5836,
      "ĠMulti": 5837,
      "Ġthoughts": 5838,
      "pected": 5839,
      "à¤": 5840,
      "Ġrecently": 5841,
      "ĠWhich": 5842,
      "relation": 5843,
      "ĠMa": 5844,
      "Ġautism": 5845,
      "comm": 5846,
      "ĠSupp": 5847,
      "inomial": 5848,
      "ographic": 5849,
      "oper": 5850,
      "Ġexternal": 5851,
      "Ġcrops": 5852,
      "insettia": 5853,
      "Ġastronom": 5854,
      "ĠAlso": 5855,
      "Ġdepression": 5856,
      "bability": 5857,
      "rices": 5858,
      "ĠRights": 5859,
      "Ġcompound": 5860,
      "Ġintegration": 5861,
      "Ġinner": 5862,
      "Where": 5863,
      "Ġ55": 5864,
      "Ġ2000": 5865,
      "gn": 5866,
      "Ġscenari": 5867,
      "Ġarrived": 5868,
      "acific": 5869,
      "ĠDevelop": 5870,
      "According": 5871,
      "Ġphr": 5872,
      "Ġhighlight": 5873,
      "Ġcorrectly": 5874,
      "Ġextended": 5875,
      "ĠMor": 5876,
      "ĠâĢ¦": 5877,
      "ĠPoinsettia": 5878,
      "Ġacting": 5879,
      "Ġarithmetic": 5880,
      "eria": 5881,
      "ĠIsl": 5882,
      "ĠRef": 5883,
      "ĠNav": 5884,
      "aran": 5885,
      "intercept": 5886,
      "92": 5887,
      "Ġformulas": 5888,
      "Ġdepos": 5889,
      "ket": 5890,
      "ĠAlex": 5891,
      "Ġrecords": 5892,
      "Ġarchitecture": 5893,
      "Ġdataset": 5894,
      "Ġamounts": 5895,
      "ĠAtl": 5896,
      "amma": 5897,
      "Ġuns": 5898,
      "ules": 5899,
      "Ġdescription": 5900,
      "Ġgrade": 5901,
      "Ġmissing": 5902,
      "ĠIndians": 5903,
      "ificial": 5904,
      "Ġstated": 5905,
      "ĠWomen": 5906,
      "cription": 5907,
      "Ġages": 5908,
      "Ġblocks": 5909,
      "Ġagriculture": 5910,
      "ĠRussia": 5911,
      "Ġcoins": 5912,
      "83": 5913,
      "abet": 5914,
      "Ġvessel": 5915,
      "Ġinterested": 5916,
      "approx": 5917,
      "Ġjoint": 5918,
      "Ġcombinations": 5919,
      "oples": 5920,
      "Ġdomestic": 5921,
      "ugh": 5922,
      "Ġfruit": 5923,
      "endment": 5924,
      "Ġtried": 5925,
      "Ġresource": 5926,
      "Ġquar": 5927,
      "itness": 5928,
      "Ġnor": 5929,
      "itage": 5930,
      "Ġinstruction": 5931,
      "Ġsamples": 5932,
      "riage": 5933,
      "ĠFurther": 5934,
      "ĠAny": 5935,
      "abulary": 5936,
      "ĠToy": 5937,
      "Ġinstrument": 5938,
      "lete": 5939,
      "Ġhandle": 5940,
      "Ġfilled": 5941,
      "Ġacts": 5942,
      "Ġdistances": 5943,
      "Ġln": 5944,
      "cipl": 5945,
      "iveness": 5946,
      "Ġkilomet": 5947,
      "Ġremark": 5948,
      "ocal": 5949,
      "Ġerrors": 5950,
      "ishing": 5951,
      "Ġsexual": 5952,
      "ferences": 5953,
      "Ġlun": 5954,
      "Se": 5955,
      "ĠWhite": 5956,
      "ðĿĳ": 5957,
      "Ġimproved": 5958,
      "Ġended": 5959,
      "Ġimpacts": 5960,
      "Ġfacts": 5961,
      "IS": 5962,
      "Ġ34": 5963,
      "ieval": 5964,
      "Ġrecorded": 5965,
      "ttp": 5966,
      "Ġutil": 5967,
      "Ġgal": 5968,
      "Ġcompleted": 5969,
      "ĠAut": 5970,
      "ĠVari": 5971,
      "Ġing": 5972,
      "essage": 5973,
      "ĠCommon": 5974,
      "Ġsecret": 5975,
      "Ġbelief": 5976,
      "Ġultimately": 5977,
      "ircraft": 5978,
      "Ġsplit": 5979,
      "Ġmm": 5980,
      "Ġuniverse": 5981,
      "iant": 5982,
      "Ġequals": 5983,
      "ĠInteg": 5984,
      "Ġinvestment": 5985,
      "Ġrotation": 5986,
      "Ġspaces": 5987,
      "Ġgovernments": 5988,
      "Ġperformed": 5989,
      "ĠEvery": 5990,
      "Ġresil": 5991,
      "Ġmultiplying": 5992,
      "aker": 5993,
      "Ġmode": 5994,
      "Ġhealthcare": 5995,
      "61": 5996,
      "aped": 5997,
      "Ġproposed": 5998,
      "Ġobservations": 5999,
      "Ġcubic": 6000,
      "Simplifying": 6001,
      "ĠBattle": 6002,
      "war": 6003,
      "Ġvoice": 6004,
      "DataFrame": 6005,
      "Ġnodes": 6006,
      "icit": 6007,
      "Ġderived": 6008,
      "start": 6009,
      "enses": 6010,
      "ĠLeg": 6011,
      "Ġrespond": 6012,
      "Ġconducted": 6013,
      "Ġlies": 6014,
      "Ġshif": 6015,
      "Ġbehaviour": 6016,
      "Ġinvolving": 6017,
      "Ġfib": 6018,
      "DE": 6019,
      "Ġformal": 6020,
      "71": 6021,
      "Ġgall": 6022,
      "ĠSea": 6023,
      "Ġcot": 6024,
      "73": 6025,
      "Ġgrand": 6026,
      "Mult": 6027,
      "rat": 6028,
      "Expl": 6029,
      "}}$": 6030,
      "ek": 6031,
      "ĠCharles": 6032,
      "ĠJer": 6033,
      "irds": 6034,
      "ching": 6035,
      "pat": 6036,
      "ĠJud": 6037,
      "ĠTreat": 6038,
      "'.": 6039,
      "Ġfailed": 6040,
      "Ġclient": 6041,
      "Ġmusical": 6042,
      "rol": 6043,
      "ĠAnother": 6044,
      "then": 6045,
      "Ġ@": 6046,
      "Ġlearners": 6047,
      "Ġsegment": 6048,
      "Ġcircles": 6049,
      "eline": 6050,
      "ĠSte": 6051,
      "Ġpolitics": 6052,
      "Ġappearance": 6053,
      "Ġstaff": 6054,
      "Ġgun": 6055,
      "Ġple": 6056,
      "Ġholds": 6057,
      "Ġlegs": 6058,
      "Ġplatform": 6059,
      "Ġfluid": 6060,
      "train": 6061,
      "ĠÎ±": 6062,
      "Ġordered": 6063,
      "ĠBay": 6064,
      "orage": 6065,
      "Ġmaintaining": 6066,
      "Ġfill": 6067,
      "icip": 6068,
      "ĠConfed": 6069,
      "Ġgrew": 6070,
      "ĠWhether": 6071,
      "win": 6072,
      "ĠGra": 6073,
      "Ġexcess": 6074,
      "Ġfighting": 6075,
      "Ġfirm": 6076,
      "rus": 6077,
      "error": 6078,
      "onds": 6079,
      "Ġreject": 6080,
      "lowing": 6081,
      "ĠStand": 6082,
      "rons": 6083,
      "ĠTem": 6084,
      "Ġpi": 6085,
      "ĠInternational": 6086,
      "Ġperimeter": 6087,
      "Ġ190": 6088,
      "iced": 6089,
      "Ġhosp": 6090,
      "lev": 6091,
      "Ġsuc": 6092,
      "Ġvulner": 6093,
      "Ġliquid": 6094,
      "Ġmillions": 6095,
      "ship": 6096,
      "ĠOld": 6097,
      "Ġrout": 6098,
      "Ġtank": 6099,
      "Ġdetailed": 6100,
      "Ġradio": 6101,
      "Ġstudied": 6102,
      "beta": 6103,
      "Ġviews": 6104,
      "output": 6105,
      "Ġspend": 6106,
      "Ġtransition": 6107,
      "ĠLin": 6108,
      "ĠKey": 6109,
      "object": 6110,
      "ĠArab": 6111,
      "Ġsphere": 6112,
      "ortunately": 6113,
      "SD": 6114,
      "Ġadopted": 6115,
      "Ġsolved": 6116,
      "ĠGovernment": 6117,
      "HD": 6118,
      "Ġwindow": 6119,
      "cons": 6120,
      "Ġcalculating": 6121,
      "Ġtorch": 6122,
      "ĠProv": 6123,
      "ĠParty": 6124,
      "Ġbreath": 6125,
      "Ġrough": 6126,
      "Ġfro": 6127,
      "Ġmoon": 6128,
      "Ġvia": 6129,
      "Ġmeasurement": 6130,
      "Ġpig": 6131,
      "ya": 6132,
      "Ġtow": 6133,
      "Ġphysics": 6134,
      "Ġoffered": 6135,
      "ĠAge": 6136,
      "Ġfriction": 6137,
      "Ġprecise": 6138,
      "ĠPlan": 6139,
      "Ġacid": 6140,
      "erest": 6141,
      "ĠOur": 6142,
      "Ġcraft": 6143,
      "Ġdeeper": 6144,
      "ĠCa": 6145,
      "gra": 6146,
      "Ġfailure": 6147,
      "Ġlogarithm": 6148,
      "Ġbed": 6149,
      "Ġnoted": 6150,
      "Ġindicate": 6151,
      "ĠPacific": 6152,
      "ĠInf": 6153,
      "Ġmeeting": 6154,
      "Ġcareer": 6155,
      "Ġfaces": 6156,
      "Ġrows": 6157,
      "ĠToyota": 6158,
      "Ġreleased": 6159,
      "Ġupd": 6160,
      "Ġbegins": 6161,
      "Ġsend": 6162,
      "Ġunderstood": 6163,
      "ooth": 6164,
      "Ġtransformation": 6165,
      "yles": 6166,
      "verty": 6167,
      "ĠHind": 6168,
      "Ġpoverty": 6169,
      "Ġaccuracy": 6170,
      "Ġdecline": 6171,
      "Ġmanner": 6172,
      "ĠVirginia": 6173,
      "Ġtrial": 6174,
      "ĠReturn": 6175,
      "ĠLouis": 6176,
      "Ġeigen": 6177,
      "eles": 6178,
      "Americ": 6179,
      "ĠProf": 6180,
      "ango": 6181,
      "ura": 6182,
      "Ġelectricity": 6183,
      "org": 6184,
      "bles": 6185,
      "Ġbright": 6186,
      "trans": 6187,
      "plot": 6188,
      "plate": 6189,
      "ĠToday": 6190,
      "ĠHel": 6191,
      "âĪĤ": 6192,
      "Ġrisks": 6193,
      "Ġchart": 6194,
      "Ġachieved": 6195,
      "Ġchildhood": 6196,
      "icated": 6197,
      "Ġstudying": 6198,
      "uous": 6199,
      "Ġdisorders": 6200,
      "code": 6201,
      "ĠĊĠĠĠ": 6202,
      "acent": 6203,
      "ij": 6204,
      "orest": 6205,
      "Ġconsumption": 6206,
      "Î±": 6207,
      "ET": 6208,
      "mu": 6209,
      "Ġthousand": 6210,
      "59": 6211,
      "Ġemail": 6212,
      "Ġarchae": 6213,
      "gment": 6214,
      "estions": 6215,
      "Ġcontributions": 6216,
      "Ġhyper": 6217,
      "apers": 6218,
      "ructions": 6219,
      "Ġsucceed": 6220,
      "ĠBible": 6221,
      "Ġtrend": 6222,
      "Ġ-\\": 6223,
      "ĠNaz": 6224,
      "ĠEst": 6225,
      "Ġturns": 6226,
      "rip": 6227,
      "Ġsports": 6228,
      "âģ": 6229,
      "Ġgained": 6230,
      "Ġanyone": 6231,
      "Ġhunting": 6232,
      "Ġengaging": 6233,
      "Ġhorse": 6234,
      "Ġdescribes": 6235,
      "Ġscholars": 6236,
      "Ġheard": 6237,
      "ĠInstitute": 6238,
      "Ġvictim": 6239,
      "liest": 6240,
      "ĠOb": 6241,
      "Ġhouses": 6242,
      "ĠOff": 6243,
      "New": 6244,
      "gl": 6245,
      "thon": 6246,
      "Ġcapable": 6247,
      "Ġselected": 6248,
      "Ġmultipl": 6249,
      "Ġjobs": 6250,
      "ĠMal": 6251,
      "RO": 6252,
      "Ġcars": 6253,
      "Ġhabitats": 6254,
      "Ġaccepted": 6255,
      "aks": 6256,
      "ĠBel": 6257,
      "map": 6258,
      "node": 6259,
      "Ġaid": 6260,
      "âĢĻ.": 6261,
      "df": 6262,
      "Ġinitially": 6263,
      "stream": 6264,
      "Ġsymbols": 6265,
      "ĠLoad": 6266,
      "58": 6267,
      "Ġregarding": 6268,
      "annel": 6269,
      "bin": 6270,
      "Ġprompt": 6271,
      "Ġexcell": 6272,
      "hors": 6273,
      "Ġtrigon": 6274,
      "Ġfindings": 6275,
      "Ġelev": 6276,
      "Ġoptional": 6277,
      "ĠCarol": 6278,
      "Ġfascinating": 6279,
      "Ġneut": 6280,
      "Ġprofession": 6281,
      "Ġsuitable": 6282,
      "Ġloop": 6283,
      "Ġresulted": 6284,
      "Ġwhom": 6285,
      "Ġgenerated": 6286,
      "Ġcris": 6287,
      "Ġ39": 6288,
      "Ġplastic": 6289,
      "ĠDavid": 6290,
      "Ġmedian": 6291,
      "Ġdistingu": 6292,
      "ĠCompany": 6293,
      "akers": 6294,
      "Ġlogic": 6295,
      "ocol": 6296,
      "Ph": 6297,
      "Ġsugar": 6298,
      "Ġnumerical": 6299,
      "ĠItal": 6300,
      "ca": 6301,
      "Ġcircular": 6302,
      "Ġgather": 6303,
      "Ġ49": 6304,
      "fl": 6305,
      "Ġbees": 6306,
      "Ġnuclear": 6307,
      "Ġkeeping": 6308,
      "inet": 6309,
      "cript": 6310,
      "mas": 6311,
      "Ġwire": 6312,
      "Ġarc": 6313,
      "Ġfossil": 6314,
      "Ġdifficulty": 6315,
      "Ġ72": 6316,
      "ilon": 6317,
      "Ġdecrease": 6318,
      "Ġorbit": 6319,
      "ribution": 6320,
      "Ġsell": 6321,
      "Ġcloser": 6322,
      "Ġconcentration": 6323,
      "Ġsummary": 6324,
      "rich": 6325,
      "ĠSpace": 6326,
      "Ġshel": 6327,
      "Ġintersection": 6328,
      "ĠDepartment": 6329,
      "Ġelection": 6330,
      "rust": 6331,
      "Ġmarks": 6332,
      "ellect": 6333,
      "Ġprepar": 6334,
      "Ġvariance": 6335,
      "Ġsettings": 6336,
      "ained": 6337,
      "rd": 6338,
      "uing": 6339,
      "igrants": 6340,
      "pread": 6341,
      "well": 6342,
      "Ġmilk": 6343,
      "Ġrank": 6344,
      "Ġritual": 6345,
      "ĠBet": 6346,
      "Ġprepared": 6347,
      "Ġrapidly": 6348,
      "Ġsuccessfully": 6349,
      "Ġdependent": 6350,
      "itudes": 6351,
      "edia": 6352,
      "AP": 6353,
      "Ġassessment": 6354,
      "Ġdesired": 6355,
      "ĠPythag": 6356,
      "unk": 6357,
      "ĠSup": 6358,
      "Ġshaped": 6359,
      "Ġhero": 6360,
      "Ġexplanation": 6361,
      "ĠMart": 6362,
      "ĠThomas": 6363,
      "82": 6364,
      "Ġwarn": 6365,
      "ĠComput": 6366,
      "Ġcoal": 6367,
      "Ġfought": 6368,
      "Ġethnic": 6369,
      "ĠPower": 6370,
      "points": 6371,
      "ĠMean": 6372,
      "Ġconfiguration": 6373,
      "Ġdrop": 6374,
      "inction": 6375,
      "Ġoutcome": 6376,
      "Ġdefault": 6377,
      "Ġpainting": 6378,
      "ĠGreen": 6379,
      "Ġdirectory": 6380,
      "ĠNor": 6381,
      "Ġconstructed": 6382,
      "Ġprofound": 6383,
      "Ġimpossible": 6384,
      "nam": 6385,
      "Ġring": 6386,
      "flow": 6387,
      "sembly": 6388,
      "Ġstorm": 6389,
      "olla": 6390,
      "Ġscores": 6391,
      "ĠSquare": 6392,
      "Ġquot": 6393,
      "Ġcapture": 6394,
      "Ġ56": 6395,
      "De": 6396,
      "Ġsnow": 6397,
      ".\")": 6398,
      "Ġperm": 6399,
      "Ġinfected": 6400,
      "ĠSl": 6401,
      "ĠSouthern": 6402,
      "Ġrivers": 6403,
      "Ġpassword": 6404,
      "Ġamb": 6405,
      "secutive": 6406,
      "Ġorganized": 6407,
      "Ġboys": 6408,
      "Ġapplying": 6409,
      "ache": 6410,
      "Ġ2020": 6411,
      "Î»": 6412,
      "ĠTex": 6413,
      "Ġdial": 6414,
      "Ġsimplifies": 6415,
      "Ġpollution": 6416,
      "Ġaircraft": 6417,
      "Ġofficials": 6418,
      "Ġdogs": 6419,
      "ĠMark": 6420,
      "Ġcatch": 6421,
      "Ġtall": 6422,
      "pm": 6423,
      "Ġcontributed": 6424,
      "ilarly": 6425,
      "Ġyield": 6426,
      "ĠHandle": 6427,
      "Ġreplaced": 6428,
      "Ġupdate": 6429,
      "Ġcreative": 6430,
      "Ġserves": 6431,
      "Ġjoined": 6432,
      "atural": 6433,
      "Ġmountain": 6434,
      "Ġtraveled": 6435,
      "Div": 6436,
      "cohol": 6437,
      "Ġflowers": 6438,
      "ĠDyn": 6439,
      "Ġ$$": 6440,
      "ĠBCE": 6441,
      "ĠMil": 6442,
      "Ġappeared": 6443,
      "but": 6444,
      "ĠLord": 6445,
      "Ġfamiliar": 6446,
      "ĠKh": 6447,
      "Solving": 6448,
      "aper": 6449,
      "tion": 6450,
      "arsh": 6451,
      "Ġdestroyed": 6452,
      "Ġreign": 6453,
      "ector": 6454,
      "Ġbomb": 6455,
      "archy": 6456,
      "ishes": 6457,
      "len": 6458,
      "van": 6459,
      "ĠRussian": 6460,
      "Ġhabits": 6461,
      "Ġtaxes": 6462,
      "Ġcreatures": 6463,
      "Ġbusinesses": 6464,
      "Ġdangerous": 6465,
      "Ġclar": 6466,
      "Ġstret": 6467,
      "Ġenemy": 6468,
      "ux": 6469,
      "Ġstages": 6470,
      "ira": 6471,
      "Ġexplained": 6472,
      "Ġsimplified": 6473,
      "ses": 6474,
      "Ġconnections": 6475,
      "Cons": 6476,
      "AM": 6477,
      "onal": 6478,
      "ĠStart": 6479,
      "Ġsuggested": 6480,
      "Ġcharacterized": 6481,
      "Ġballs": 6482,
      "idespread": 6483,
      "Ġflex": 6484,
      ".**": 6485,
      "vironment": 6486,
      "Ġsaying": 6487,
      "arvest": 6488,
      "Ġfemales": 6489,
      "cies": 6490,
      "Ġperce": 6491,
      "aughter": 6492,
      "Ġwaters": 6493,
      "ht": 6494,
      "74": 6495,
      "imeters": 6496,
      "ĠGa": 6497,
      "Ġverb": 6498,
      "{(": 6499,
      "bmatrix": 6500,
      "Ġprocessing": 6501,
      "ups": 6502,
      "writ": 6503,
      "orter": 6504,
      "Per": 6505,
      "imensional": 6506,
      "Ġhelpful": 6507,
      "Ġtransportation": 6508,
      "ername": 6509,
      "Ġoptim": 6510,
      "Ġic": 6511,
      "Ġkinetic": 6512,
      "Ġtechnologies": 6513,
      "Ġ65": 6514,
      "ditional": 6515,
      "issance": 6516,
      "Ġheads": 6517,
      "âĢ¢": 6518,
      "oose": 6519,
      "ato": 6520,
      "Ġfly": 6521,
      "Ġbeautiful": 6522,
      "Ġplanets": 6523,
      "temporary": 6524,
      "Ġfine": 6525,
      "Ġcrisis": 6526,
      "Ġjournal": 6527,
      "Ġintended": 6528,
      "pol": 6529,
      "Ġends": 6530,
      "Ġlooked": 6531,
      "Ġrecip": 6532,
      "Ġfourth": 6533,
      "istical": 6534,
      "Ġroyal": 6535,
      "Ġphilosophy": 6536,
      "Ġperman": 6537,
      "ĠFin": 6538,
      "Ġpolyg": 6539,
      "Ġrelease": 6540,
      "Ġstream": 6541,
      "++": 6542,
      "ĠDraw": 6543,
      "Ġpeoples": 6544,
      "Ġcircumst": 6545,
      "Ġtick": 6546,
      "exp": 6547,
      "ĠCenter": 6548,
      "Ġdrive": 6549,
      "long": 6550,
      "Ġwet": 6551,
      "ĠMove": 6552,
      "Ġentirely": 6553,
      "Ġdemocracy": 6554,
      "Ġelected": 6555,
      "Ġfilter": 6556,
      "ĠComple": 6557,
      "utation": 6558,
      "ait": 6559,
      "Ġexplains": 6560,
      "ĠDemoc": 6561,
      "Col": 6562,
      "Ġweigh": 6563,
      "ava": 6564,
      "Ġâī¥": 6565,
      "aur": 6566,
      "Equ": 6567,
      "ĠRich": 6568,
      "Ġvocabulary": 6569,
      "utch": 6570,
      "Ġunlike": 6571,
      "Ġtexts": 6572,
      "53": 6573,
      "Ġtyping": 6574,
      "Ġproportional": 6575,
      "ishment": 6576,
      "Ġpuzz": 6577,
      "Ġdebate": 6578,
      "lines": 6579,
      "ias": 6580,
      "Ġwidespread": 6581,
      "Ġradiation": 6582,
      "using": 6583,
      "Ġvictory": 6584,
      "urance": 6585,
      "Ġcritic": 6586,
      "Ġmix": 6587,
      "Ġcerem": 6588,
      "Ġrural": 6589,
      "orrow": 6590,
      "Ġcredit": 6591,
      "Ġstatistics": 6592,
      "Ġstick": 6593,
      "Gen": 6594,
      "nce": 6595,
      "Ġprominent": 6596,
      "Ġemerged": 6597,
      "Sum": 6598,
      "Ġgene": 6599,
      "Ġrequirements": 6600,
      "ĠCE": 6601,
      "Ġkill": 6602,
      "Ġwife": 6603,
      "Ġrecognition": 6604,
      "Ġslightly": 6605,
      "Ġmere": 6606,
      "Ġscreen": 6607,
      "Alternatively": 6608,
      "itz": 6609,
      "Ġ44": 6610,
      "Ġintellect": 6611,
      "Ġcategory": 6612,
      "ĠSch": 6613,
      "Ġeastern": 6614,
      "Ġlabels": 6615,
      "Ġdiagonal": 6616,
      "ras": 6617,
      "Ġmales": 6618,
      "Ġconsistent": 6619,
      "Ġsecure": 6620,
      "ulf": 6621,
      "Te": 6622,
      "Ġinteractions": 6623,
      "Ġconstraint": 6624,
      "Ġunion": 6625,
      "Ġpassing": 6626,
      "âĪ«": 6627,
      "ĠCorolla": 6628,
      "App": 6629,
      "rime": 6630,
      "Ġprotected": 6631,
      "Ġdeclared": 6632,
      "Ġroute": 6633,
      "Ġcontrolled": 6634,
      "Ġpolice": 6635,
      "Ġminute": 6636,
      "Ġ\\,": 6637,
      "Ġnutrients": 6638,
      "making": 6639,
      "ĠPrime": 6640,
      "ĠKingdom": 6641,
      "ĠBen": 6642,
      "ĠSat": 6643,
      "Ġsurvey": 6644,
      "orses": 6645,
      "ĠGraph": 6646,
      "ĠSupreme": 6647,
      "Ġcreates": 6648,
      "teen": 6649,
      "OT": 6650,
      "Ġ$$\\": 6651,
      "Ġdemonstrate": 6652,
      "Ġtal": 6653,
      "Ġlaid": 6654,
      "cor": 6655,
      "ĠWater": 6656,
      "Ġearliest": 6657,
      "Ġenhance": 6658,
      "Ġwitness": 6659,
      "Ġspeaking": 6660,
      "Ġfounded": 6661,
      "alysis": 6662,
      "ĠSociety": 6663,
      "Ġjoin": 6664,
      "neg": 6665,
      "ĠEarly": 6666,
      "Ġfruits": 6667,
      "ifier": 6668,
      "Ġintersect": 6669,
      "Ġkinds": 6670,
      "Ġschem": 6671,
      "net": 6672,
      "Ġsession": 6673,
      "isc": 6674,
      "Ġbond": 6675,
      "imation": 6676,
      "eli": 6677,
      "En": 6678,
      "Ġaccompl": 6679,
      "ĠNewton": 6680,
      "anguage": 6681,
      "vals": 6682,
      "Ġgods": 6683,
      "Ġcaptured": 6684,
      "Ġdivisors": 6685,
      "Ġquery": 6686,
      "ĠâĪĪ": 6687,
      "Ġfacilit": 6688,
      "Ġbud": 6689,
      "ĠRobert": 6690,
      "Ġplt": 6691,
      "lay": 6692,
      "ĠFederal": 6693,
      "ĠNorthern": 6694,
      "Ġexponential": 6695,
      "Ġcalls": 6696,
      "Ġimperial": 6697,
      "{-": 6698,
      "python": 6699,
      "Ġcultiv": 6700,
      "?âĢĿ": 6701,
      "Ġsustainable": 6702,
      "Ġsocieties": 6703,
      "elled": 6704,
      "Ġnegot": 6705,
      "coln": 6706,
      "Total": 6707,
      "Ġ!": 6708,
      "Ġgenes": 6709,
      "vis": 6710,
      "xture": 6711,
      "\"]": 6712,
      "Ġongoing": 6713,
      "ractions": 6714,
      "ĠDivide": 6715,
      "Ġlose": 6716,
      "Ġmedium": 6717,
      "ĠCur": 6718,
      "Ġeveryday": 6719,
      "Ġ41": 6720,
      "oric": 6721,
      "cules": 6722,
      "itational": 6723,
      "Ġprincipal": 6724,
      "ampl": 6725,
      "yramid": 6726,
      "ĠSk": 6727,
      "oyal": 6728,
      "Ġpul": 6729,
      "gent": 6730,
      "Ġclock": 6731,
      "Ġknew": 6732,
      "ĠBer": 6733,
      "Ġvolunt": 6734,
      "active": 6735,
      "bert": 6736,
      "ĠCouncil": 6737,
      "ĠIndigenous": 6738,
      "ION": 6739,
      "Ġtempor": 6740,
      "Ġdenote": 6741,
      "score": 6742,
      "Ġrecommend": 6743,
      "SA": 6744,
      "Ġhonor": 6745,
      "rency": 6746,
      "ĠLike": 6747,
      "Ġextent": 6748,
      "ago": 6749,
      "Ġvisible": 6750,
      "().": 6751,
      "pen": 6752,
      "ĠParliament": 6753,
      "Ġabund": 6754,
      "Ġswim": 6755,
      "Ġopened": 6756,
      "Ġcolony": 6757,
      "ĠTexas": 6758,
      "orical": 6759,
      "Ġlooks": 6760,
      "Tensor": 6761,
      "ĠIntroduction": 6762,
      "Ġattrib": 6763,
      "Ġinfinity": 6764,
      "Ġobvious": 6765,
      "weight": 6766,
      "Ġ38": 6767,
      "band": 6768,
      "Ġsubs": 6769,
      "Ġwonder": 6770,
      "nes": 6771,
      "root": 6772,
      "ĠFunctions": 6773,
      "ĠChe": 6774,
      "db": 6775,
      "riers": 6776,
      "Ġtour": 6777,
      "Ġbranch": 6778,
      "Ġvib": 6779,
      "ĠÏĥ": 6780,
      "97": 6781,
      "Ġmort": 6782,
      "body": 6783,
      "kg": 6784,
      "Ġparticle": 6785,
      "ipping": 6786,
      "Ġfinite": 6787,
      "Ġgreatly": 6788,
      "Ġstanding": 6789,
      "uilding": 6790,
      "aration": 6791,
      "Ġinterior": 6792,
      "Ġkid": 6793,
      "ĠRomans": 6794,
      "Ġmur": 6795,
      "Ġalign": 6796,
      "02": 6797,
      "abled": 6798,
      "Ġplate": 6799,
      "Ġacknow": 6800,
      "atically": 6801,
      "Ġfing": 6802,
      "ĠFormula": 6803,
      "ĠTechn": 6804,
      "ĠĊĠĠ": 6805,
      "pred": 6806,
      "pers": 6807,
      "ĠPract": 6808,
      "ordinate": 6809,
      "Ġvolcan": 6810,
      "essor": 6811,
      "ptions": 6812,
      "Ġcollected": 6813,
      "Ġ52": 6814,
      "Ġexception": 6815,
      "ctic": 6816,
      "Ġattacks": 6817,
      "Despite": 6818,
      "Ã¡": 6819,
      "ĠContin": 6820,
      "Ġunable": 6821,
      "vest": 6822,
      "bul": 6823,
      "Ġexpert": 6824,
      "Ġbrief": 6825,
      "create": 6826,
      "Ġtraum": 6827,
      "ĠCirc": 6828,
      "Ġpotentially": 6829,
      "orted": 6830,
      "Ġsentences": 6831,
      "'ve": 6832,
      "Ġtypical": 6833,
      "Ġsupporting": 6834,
      "eps": 6835,
      "result": 6836,
      "Ġconsecutive": 6837,
      "Ġsyn": 6838,
      "reland": 6839,
      "Ġtrou": 6840,
      "ĠColumb": 6841,
      "ocation": 6842,
      "rium": 6843,
      "Ġfeeding": 6844,
      "Ġabol": 6845,
      "Ġcourts": 6846,
      "Ġcomposition": 6847,
      "ycl": 6848,
      "Ġproperly": 6849,
      "That": 6850,
      "Ġban": 6851,
      "Ġreserv": 6852,
      "ros": 6853,
      "Ġmanip": 6854,
      "oked": 6855,
      "Ġsacr": 6856,
      "Ġparticipate": 6857,
      "Ġcylinder": 6858,
      "Ġpil": 6859,
      "jection": 6860,
      "ounced": 6861,
      "Ġgarden": 6862,
      "Ġsales": 6863,
      "Ġgalax": 6864,
      "Ġregularly": 6865,
      "Ġlisten": 6866,
      "51": 6867,
      "Ġproved": 6868,
      "Ġangular": 6869,
      "Ġbrown": 6870,
      "ĠAttributes": 6871,
      "rastructure": 6872,
      "Ġclin": 6873,
      "conomic": 6874,
      "ĠHaw": 6875,
      "uits": 6876,
      "rays": 6877,
      "Ġemployees": 6878,
      "Ġstorage": 6879,
      "Ġtells": 6880,
      "ĠSal": 6881,
      "Ġpolar": 6882,
      "Ġwebsite": 6883,
      "Ġincred": 6884,
      "CM": 6885,
      "Ġrely": 6886,
      "ilib": 6887,
      "Ġstability": 6888,
      "Ġlayers": 6889,
      "\\\\": 6890,
      "Ġsynt": 6891,
      "Ġescape": 6892,
      "Question": 6893,
      "Ġreaders": 6894,
      "ders": 6895,
      "ĠItalian": 6896,
      "world": 6897,
      "Ġsen": 6898,
      "Ġdesire": 6899,
      "join": 6900,
      "inated": 6901,
      "appe": 6902,
      "Ġdistributed": 6903,
      "arest": 6904,
      "Ġsigned": 6905,
      "faces": 6906,
      "Ġquantities": 6907,
      ")))": 6908,
      "Ġnecessarily": 6909,
      "ĠFort": 6910,
      "ĠDou": 6911,
      "Ġapparent": 6912,
      "oral": 6913,
      "Ġpull": 6914,
      "Ġintervention": 6915,
      "Ġmanaged": 6916,
      "pping": 6917,
      "ĠMuseum": 6918,
      "Ġregression": 6919,
      "Ġdiscussed": 6920,
      ")=": 6921,
      "Ġantib": 6922,
      "Ġalcohol": 6923,
      "Ġtun": 6924,
      "Ġpregn": 6925,
      "}_{": 6926,
      "Ġneuro": 6927,
      "Ġfeedback": 6928,
      "olf": 6929,
      "Ġstands": 6930,
      "ĠEvaluate": 6931,
      "ĠIter": 6932,
      "Ġatom": 6933,
      "Comb": 6934,
      "ĠLake": 6935,
      "ĠSolving": 6936,
      "Ġportion": 6937,
      "Ġpron": 6938,
      "More": 6939,
      "Ġinteraction": 6940,
      "Ġtiny": 6941,
      "CT": 6942,
      "]]": 6943,
      "orous": 6944,
      "omega": 6945,
      "Ġcarefully": 6946,
      "hism": 6947,
      "Ġlocations": 6948,
      "rep": 6949,
      "ulating": 6950,
      "Ġ2019": 6951,
      "Ġnutrition": 6952,
      "ĠIrish": 6953,
      "400": 6954,
      "Ġborder": 6955,
      "Ġinsights": 6956,
      "ĠIreland": 6957,
      "7777": 6958,
      "Ġcircumstances": 6959,
      "ingly": 6960,
      "erb": 6961,
      "Ġaltern": 6962,
      "ĠElect": 6963,
      "Ġmedicine": 6964,
      "ĠOh": 6965,
      "Ġdisabilities": 6966,
      "Ġprepare": 6967,
      "Ġrenew": 6968,
      "Ġdifficulties": 6969,
      "Ġterritories": 6970,
      "Key": 6971,
      "Subtract": 6972,
      "ĠEgyptian": 6973,
      "93": 6974,
      "Ġholid": 6975,
      "message": 6976,
      "Ġgeometry": 6977,
      "ĠGal": 6978,
      "Ġentry": 6979,
      "ĠPlay": 6980,
      "ĠOper": 6981,
      "request": 6982,
      "icians": 6983,
      "Ġ(\\": 6984,
      "Ġresidents": 6985,
      "Ġpiv": 6986,
      "ĠBab": 6987,
      "Ġboundaries": 6988,
      "ĠBase": 6989,
      "ĠScot": 6990,
      "Ġdiagram": 6991,
      "group": 6992,
      "rics": 6993,
      "iration": 6994,
      "Ġvs": 6995,
      "HE": 6996,
      "alley": 6997,
      "Ġmeasuring": 6998,
      "Ġtables": 6999,
      "Ġlov": 7000,
      "ighter": 7001,
      "Ġexperiments": 7002,
      "Ġcolour": 7003,
      "Ġpersons": 7004,
      "Ġharvest": 7005,
      "Ġislands": 7006,
      "Ġstored": 7007,
      "Ġdesert": 7008,
      "ĠCD": 7009,
      "Ġthin": 7010,
      "apes": 7011,
      "ĠUnder": 7012,
      "Ġpassage": 7013,
      "Ġcomparison": 7014,
      "Ġoriginally": 7015,
      "ĠConsider": 7016,
      "Ġpark": 7017,
      "Ġprobabilities": 7018,
      "Ġ1960": 7019,
      "Ġrecommended": 7020,
      "ework": 7021,
      "Ġgap": 7022,
      "Ġseed": 7023,
      "eenth": 7024,
      "Ġmeat": 7025,
      "Ġadapted": 7026,
      "Ġgradually": 7027,
      "Ġnine": 7028,
      "Ġquart": 7029,
      "Ġpret": 7030,
      "Ġneighbor": 7031,
      "Ġcorner": 7032,
      "ĠÎ»": 7033,
      "Ġprofessor": 7034,
      "Ġbones": 7035,
      "ĠOptional": 7036,
      "Ġexpanded": 7037,
      "Ġsoftware": 7038,
      "kes": 7039,
      "1000": 7040,
      "ĠLincoln": 7041,
      "ĠCounty": 7042,
      "hered": 7043,
      ")^{": 7044,
      "Ġturning": 7045,
      "ĠIndepend": 7046,
      "ĠADHD": 7047,
      "Ġclothing": 7048,
      "Ġpupils": 7049,
      "agues": 7050,
      "Ġtalking": 7051,
      "Ġobl": 7052,
      "Ġremarkable": 7053,
      "Ġouter": 7054,
      "Ġclaims": 7055,
      "Ġsector": 7056,
      "Ġaccounts": 7057,
      "opy": 7058,
      "Ġbroken": 7059,
      "Ġslowly": 7060,
      "Ġspirit": 7061,
      "}^{\\": 7062,
      "Ġboundary": 7063,
      "Ġinterpretation": 7064,
      "Ġpromoting": 7065,
      "Ġsatell": 7066,
      "Ġindigenous": 7067,
      "Ġindicating": 7068,
      "Ġdefend": 7069,
      "Ġintroduction": 7070,
      "Ġdecor": 7071,
      "Ġsky": 7072,
      "Ġencouraged": 7073,
      "usal": 7074,
      "ĠJose": 7075,
      "ĠAir": 7076,
      "ushed": 7077,
      "Ġcharacteristic": 7078,
      "Ġadjacent": 7079,
      "Ġcopy": 7080,
      "Ġsettlement": 7081,
      "Ġrecurs": 7082,
      "Ġmarriage": 7083,
      "berg": 7084,
      "Ġhole": 7085,
      "Ġarms": 7086,
      "Ġrocks": 7087,
      "Ġwants": 7088,
      "Ġhar": 7089,
      "ifications": 7090,
      "Ġinfections": 7091,
      "}+": 7092,
      "ashion": 7093,
      "Ġfell": 7094,
      "Ġfiles": 7095,
      "Ġinhabit": 7096,
      "Ġbullying": 7097,
      "Ġexperts": 7098,
      "Ġcompetition": 7099,
      "table": 7100,
      "Ġdisplacement": 7101,
      "Model": 7102,
      "inant": 7103,
      "fit": 7104,
      "Ġbreeding": 7105,
      "Ġwasn": 7106,
      "Ġimproving": 7107,
      "06": 7108,
      "ĠEastern": 7109,
      "Ġfewer": 7110,
      "Ġvehicle": 7111,
      "Ġvit": 7112,
      "Ġmir": 7113,
      "Ġusers": 7114,
      "Ġnotation": 7115,
      "04": 7116,
      "Ġextensive": 7117,
      "Ġsignals": 7118,
      "Ġmeasurements": 7119,
      "Ġwings": 7120,
      "Ġearthqu": 7121,
      "Ġcats": 7122,
      "ĠFound": 7123,
      "Ġbridge": 7124,
      "erty": 7125,
      "Ġlifest": 7126,
      "Ġske": 7127,
      "Ġment": 7128,
      "Ġproducing": 7129,
      "ĠHit": 7130,
      "08": 7131,
      "ĠMich": 7132,
      "ĠPaul": 7133,
      "www": 7134,
      "dimensional": 7135,
      "ĠQuestions": 7136,
      "Ġsizes": 7137,
      "ilibrium": 7138,
      "function": 7139,
      "Ġstyles": 7140,
      "Ġstrict": 7141,
      "sigma": 7142,
      "Ġsatisfy": 7143,
      "den": 7144,
      "Ġcentre": 7145,
      "Ġauthors": 7146,
      "ka": 7147,
      "PS": 7148,
      "Ġ54": 7149,
      "ĠCub": 7150,
      "post": 7151,
      "Ġsan": 7152,
      "Ġmedieval": 7153,
      "Ġ95": 7154,
      "plicated": 7155,
      "ĠThree": 7156,
      "Ġ(âĪļ": 7157,
      "Ġcart": 7158,
      "ndrome": 7159,
      "ĠNations": 7160,
      "Ġasking": 7161,
      "Ġinfrastructure": 7162,
      "Ġcounting": 7163,
      "Ġuncertain": 7164,
      "Ġadministration": 7165,
      "ida": 7166,
      "ĠHuman": 7167,
      "ĠGold": 7168,
      "Ġasks": 7169,
      "Ġobjective": 7170,
      "Ġboy": 7171,
      "Ġemperor": 7172,
      "Ġpersist": 7173,
      "Ġresilience": 7174,
      "jango": 7175,
      "itan": 7176,
      "Ġhop": 7177,
      "ĠDel": 7178,
      "ĠParis": 7179,
      "Ġworldwide": 7180,
      "ĠMain": 7181,
      "Ġstrengthen": 7182,
      "Ġconflicts": 7183,
      "Ġstable": 7184,
      "eff": 7185,
      "Ġeducators": 7186,
      "connect": 7187,
      "Char": 7188,
      "Ġreports": 7189,
      "bi": 7190,
      "ĠColle": 7191,
      "ĠVer": 7192,
      "Ġvulnerable": 7193,
      "Ġweights": 7194,
      "Ġsed": 7195,
      "Ġexploration": 7196,
      "ĠZe": 7197,
      "Ġengaged": 7198,
      "Ġcomposed": 7199,
      "Ġregardless": 7200,
      "Ġhydrogen": 7201,
      "Most": 7202,
      "ĠMax": 7203,
      "Ġdecide": 7204,
      "Ġopinion": 7205,
      "Ġpossibility": 7206,
      "Sp": 7207,
      "Ġnarrow": 7208,
      "ho": 7209,
      "athers": 7210,
      "otes": 7211,
      "Ġseeking": 7212,
      "ĠLand": 7213,
      "ĠGreece": 7214,
      "BC": 7215,
      "ĠST": 7216,
      "Ġpra": 7217,
      "ĠFactor": 7218,
      "Ġmonit": 7219,
      "Ġexcellent": 7220,
      "ĠSuch": 7221,
      "ĠVen": 7222,
      "ĠLife": 7223,
      "Ġelif": 7224,
      "Ġindustr": 7225,
      "Ġintegr": 7226,
      "Ġsheet": 7227,
      "Ġindustries": 7228,
      "Ġreplace": 7229,
      "Ġheritage": 7230,
      "ĠUN": 7231,
      "ĠPrin": 7232,
      "Ġsecondary": 7233,
      "oxide": 7234,
      "Ġgram": 7235,
      "ĠIII": 7236,
      "Ġcollege": 7237,
      "Ġcontemporary": 7238,
      "Ġaqu": 7239,
      "ĠPythagorean": 7240,
      "models": 7241,
      "stone": 7242,
      "Ġimmediate": 7243,
      "Ġagreement": 7244,
      "fol": 7245,
      "Ġvillage": 7246,
      "Ġsubstance": 7247,
      "stract": 7248,
      "Ġtrained": 7249,
      "Ġscript": 7250,
      "Ġ600": 7251,
      "Ġobserve": 7252,
      "Ġpure": 7253,
      "Ġguaran": 7254,
      "ĠDifferent": 7255,
      "Ġbow": 7256,
      "Ġplus": 7257,
      "ĠUpdate": 7258,
      "ÎĶ": 7259,
      "andon": 7260,
      "Ġmigration": 7261,
      "Ġelectrical": 7262,
      "uler": 7263,
      "Ġfilm": 7264,
      "Ġsmooth": 7265,
      "Ġoffering": 7266,
      "Ġcash": 7267,
      "Ġdiff": 7268,
      "Ġarticles": 7269,
      ")**:": 7270,
      "ĠMac": 7271,
      "Ġweb": 7272,
      "125": 7273,
      "Ġwriter": 7274,
      "Ġexplo": 7275,
      "Ġbeauty": 7276,
      "Ġguidance": 7277,
      "Ġyouth": 7278,
      "Ġboost": 7279,
      "Ġartificial": 7280,
      "Ġentered": 7281,
      "ĠFinding": 7282,
      "Supp": 7283,
      "Ġruled": 7284,
      "Ġcubes": 7285,
      "Ġsettlers": 7286,
      "alar": 7287,
      "otion": 7288,
      "Ġguess": 7289,
      "Ġconcerned": 7290,
      "Ġcalculator": 7291,
      "Ġmarine": 7292,
      "Ġequally": 7293,
      "Ġwars": 7294,
      "Ġheavily": 7295,
      "erals": 7296,
      "Ġtrials": 7297,
      "iations": 7298,
      "Ġexceed": 7299,
      "Ġchapter": 7300,
      "Ġdiscipl": 7301,
      "Ġpartners": 7302,
      "Ġinformed": 7303,
      "Ġdestruction": 7304,
      "Ġeru": 7305,
      "94": 7306,
      "Ġcelebrated": 7307,
      "Ġmolecules": 7308,
      "Ġtheories": 7309,
      "ein": 7310,
      "SV": 7311,
      "ĠAN": 7312,
      "cis": 7313,
      "ĠNAS": 7314,
      "Ġband": 7315,
      "ĠAncient": 7316,
      "Ġgravitational": 7317,
      "icate": 7318,
      "Ġlegislation": 7319,
      "ĠRaises": 7320,
      "Ġcongru": 7321,
      "Ġdebt": 7322,
      "ado": 7323,
      "ĠCanadian": 7324,
      "ada": 7325,
      "Ġfest": 7326,
      "Ġinspired": 7327,
      "burg": 7328,
      "roc": 7329,
      "top": 7330,
      "Ġproceed": 7331,
      "what": 7332,
      "ibl": 7333,
      "Ġprogramming": 7334,
      "Ġwilling": 7335,
      "oons": 7336,
      "Ġsail": 7337,
      "ĠPerform": 7338,
      "Ġclassical": 7339,
      "Ġgrams": 7340,
      "*(": 7341,
      "Ġorganisms": 7342,
      "Ġyounger": 7343,
      "Ġwheel": 7344,
      "Ġobst": 7345,
      "ĠMoon": 7346,
      "idget": 7347,
      "ĠPhys": 7348,
      "Ġcorrelation": 7349,
      "%,": 7350,
      "Ġsight": 7351,
      "^\\": 7352,
      "Ġdeeply": 7353,
      "Fact": 7354,
      "Ġnoise": 7355,
      "Ġdispl": 7356,
      "Ġsick": 7357,
      "Ġnaturally": 7358,
      "ĠShow": 7359,
      "Time": 7360,
      "Our": 7361,
      "wood": 7362,
      "enaissance": 7363,
      "Ġsav": 7364,
      "Ġtact": 7365,
      "ĠCult": 7366,
      "Ġru": 7367,
      "Ġsalt": 7368,
      "Ġintellectual": 7369,
      "Ġhorses": 7370,
      "Ġparticipants": 7371,
      "Ġsuf": 7372,
      "Ġargued": 7373,
      "dden": 7374,
      "âĢĻ,": 7375,
      "instance": 7376,
      "Ġsubstant": 7377,
      "Ġtoler": 7378,
      "Ġ..": 7379,
      "Ġstack": 7380,
      "Ġagreed": 7381,
      "ĠType": 7382,
      "Ġdates": 7383,
      "Ġcompl": 7384,
      "Ġtension": 7385,
      "Ġshaping": 7386,
      "Ġauthorities": 7387,
      "ĠChristianity": 7388,
      "Ġod": 7389,
      "Ġcontained": 7390,
      "Ġcrop": 7391,
      "nter": 7392,
      "Ġimplications": 7393,
      "ĠSenate": 7394,
      "Ġwel": 7395,
      "igure": 7396,
      "ĠLim": 7397,
      "Ġfarming": 7398,
      "rightarrow": 7399,
      "Ġrefuge": 7400,
      "Ġhus": 7401,
      "draw": 7402,
      "Ġtruly": 7403,
      "osion": 7404,
      "Ġrig": 7405,
      "âĢĺ": 7406,
      "Ġnearby": 7407,
      "ĠVict": 7408,
      "ĠCle": 7409,
      "Ġinvestig": 7410,
      "ĠMad": 7411,
      "uct": 7412,
      "ĠGl": 7413,
      "Ġpray": 7414,
      "Ġreduction": 7415,
      "CH": 7416,
      "Ġkingdom": 7417,
      "Ġow": 7418,
      "Ġmatters": 7419,
      "Exp": 7420,
      "isp": 7421,
      "Ġdirections": 7422,
      "akistan": 7423,
      "}_": 7424,
      "oo": 7425,
      "Ġtherm": 7426,
      "Ġsuffering": 7427,
      "Ġaudience": 7428,
      "Ġfacing": 7429,
      "Ġ250": 7430,
      "Ġrestrict": 7431,
      "chers": 7432,
      "Be": 7433,
      "inition": 7434,
      "Ġmessages": 7435,
      "Ġcreativity": 7436,
      "aws": 7437,
      "Ġlistening": 7438,
      "ĠAtlantic": 7439,
      "cribed": 7440,
      "Ġabandon": 7441,
      "Ġsharing": 7442,
      "Ġ]": 7443,
      "Ġsubsequent": 7444,
      "rec": 7445,
      "Ġinflation": 7446,
      "uts": 7447,
      "Ġintervals": 7448,
      "Ġpasses": 7449,
      "ĠImport": 7450,
      "enuse": 7451,
      "Ġ--": 7452,
      "Ġwhereas": 7453,
      "ien": 7454,
      "ĠTake": 7455,
      "Ġ2018": 7456,
      "Ġtissue": 7457,
      "vari": 7458,
      "amics": 7459,
      "cluding": 7460,
      "Ġselection": 7461,
      "ĠAv": 7462,
      "roke": 7463,
      "Ġtrigonometric": 7464,
      "Ġdoor": 7465,
      "Ġproduces": 7466,
      "ĠProject": 7467,
      "Ġconcrete": 7468,
      "Ġran": 7469,
      "Ġbear": 7470,
      "bing": 7471,
      "Ġdesigns": 7472,
      "Ġruns": 7473,
      "Ġbot": 7474,
      "ĠNASA": 7475,
      "Ġcav": 7476,
      "Ġlatter": 7477,
      "Â°)": 7478,
      "Ġqual": 7479,
      "culpt": 7480,
      ")^(": 7481,
      "Ġtowns": 7482,
      "ĠReliability": 7483,
      "Ġsudden": 7484,
      "Ġ2015": 7485,
      "ĠDevelopment": 7486,
      "Ġneither": 7487,
      "Ġcoordinate": 7488,
      "Ġcivilization": 7489,
      "Ġimplemented": 7490,
      "hent": 7491,
      "ĠFrank": 7492,
      "ĠModel": 7493,
      "Ġgrown": 7494,
      "Stud": 7495,
      "Ġboat": 7496,
      "Ġorb": 7497,
      "Ġensl": 7498,
      "while": 7499,
      "SS": 7500,
      "Ġrevenue": 7501,
      "Ġlie": 7502,
      "isters": 7503,
      "ĠVolume": 7504,
      "Ġcontrovers": 7505,
      "Ġkilometers": 7506,
      "Ġabuse": 7507,
      "Ġchief": 7508,
      "Ġsorted": 7509,
      "BT": 7510,
      "Ġmammals": 7511,
      "Ġseeing": 7512,
      "Ġreasoning": 7513,
      "ny": 7514,
      "Ġtemple": 7515,
      "Ġcomment": 7516,
      "Ġcategories": 7517,
      "Ġcombat": 7518,
      "last": 7519,
      "Ġpoem": 7520,
      "gence": 7521,
      "Ġworship": 7522,
      "oma": 7523,
      "ĠHave": 7524,
      "Two": 7525,
      "Ġeliminate": 7526,
      "{{": 7527,
      "Ġclaimed": 7528,
      "Ġlasting": 7529,
      "ropical": 7530,
      "Ġhousehold": 7531,
      "Ġbanks": 7532,
      "ulus": 7533,
      "Other": 7534,
      "Ġholes": 7535,
      "ĠKnow": 7536,
      "Ġmachines": 7537,
      "Ġparser": 7538,
      "scale": 7539,
      "amps": 7540,
      "$=": 7541,
      "alls": 7542,
      "she": 7543,
      "Ġbeneficial": 7544,
      "Ġpayment": 7545,
      "asp": 7546,
      "label": 7547,
      "Ġwinning": 7548,
      "ĠCode": 7549,
      "teenth": 7550,
      "fish": 7551,
      "antly": 7552,
      "ĠLong": 7553,
      "Ġhousing": 7554,
      "Ġ{\\": 7555,
      "Ġthrive": 7556,
      "American": 7557,
      "Ġpip": 7558,
      "cers": 7559,
      "Ġdisput": 7560,
      "Ġparameter": 7561,
      "Ġvehicles": 7562,
      "opt": 7563,
      "Ġweapons": 7564,
      "ĠTw": 7565,
      "Ġcycl": 7566,
      "nderstanding": 7567,
      "ĠCarolina": 7568,
      "Ġbread": 7569,
      "Ġsupplies": 7570,
      "Ġpictures": 7571,
      "Ġdedicated": 7572,
      "Ġsections": 7573,
      "Ïī": 7574,
      "heses": 7575,
      "Ġwear": 7576,
      "Ġcommitment": 7577,
      "iated": 7578,
      "Ġnormally": 7579,
      "Ġmatrices": 7580,
      "Ġ2016": 7581,
      "Ġ!=": 7582,
      "craft": 7583,
      "Dict": 7584,
      "Ġpossibly": 7585,
      "Ġattempts": 7586,
      "Ġdriving": 7587,
      "ounded": 7588,
      "Ġaimed": 7589,
      "iled": 7590,
      "ĠStat": 7591,
      "ĠMo": 7592,
      "ĠRenaissance": 7593,
      "Ġorigins": 7594,
      "Bl": 7595,
      "Ġexpensive": 7596,
      "parse": 7597,
      "Ġ1970": 7598,
      "Ġregulations": 7599,
      "Ġorient": 7600,
      "Ġju": 7601,
      "Ġaren": 7602,
      "eer": 7603,
      "Ġdelay": 7604,
      "atever": 7605,
      "Ġreward": 7606,
      "Ġsteel": 7607,
      "Ġmorning": 7608,
      "Ġadvice": 7609,
      "300": 7610,
      "erving": 7611,
      "Ġtox": 7612,
      "Ġtwenty": 7613,
      "ĠScott": 7614,
      "Ġhidden": 7615,
      "Ġdenoted": 7616,
      "Ġestablishment": 7617,
      "Ġconj": 7618,
      "Ġcertainly": 7619,
      "Ġthemes": 7620,
      "Ġnotable": 7621,
      "regation": 7622,
      "nel": 7623,
      "ocket": 7624,
      "ĠRoyal": 7625,
      "Ġnearest": 7626,
      "Ġcenters": 7627,
      "ĠCap": 7628,
      "Ġdefense": 7629,
      "ĠTree": 7630,
      "Ġvisited": 7631,
      "heast": 7632,
      "ĠÂ£": 7633,
      "Ġsubtraction": 7634,
      "api": 7635,
      "direct": 7636,
      "Ġclust": 7637,
      "Ġemployed": 7638,
      "ville": 7639,
      "Ġafford": 7640,
      "Ġconverted": 7641,
      "ĠBre": 7642,
      "hr": 7643,
      "elines": 7644,
      "Area": 7645,
      "Ġnarrative": 7646,
      "Ġofficers": 7647,
      "Ġexplicit": 7648,
      "ĠFinally": 7649,
      "Ġmaps": 7650,
      "tical": 7651,
      "Ġrevealed": 7652,
      "split": 7653,
      "Ġlowest": 7654,
      "Ġintense": 7655,
      "Ġcomprehensive": 7656,
      "Ġaccum": 7657,
      "ĠMag": 7658,
      "Ġimplementation": 7659,
      "Ġnone": 7660,
      "ĠSign": 7661,
      "Ġreinforce": 7662,
      "Ġexert": 7663,
      "ĠÎ²": 7664,
      "ĠProcess": 7665,
      "Ġraw": 7666,
      "ĠCollege": 7667,
      "solving": 7668,
      "Ġradical": 7669,
      "Comm": 7670,
      "Ġgraphs": 7671,
      "Ġemployment": 7672,
      "ultane": 7673,
      "Ġ1990": 7674,
      "03": 7675,
      "Ġwildlife": 7676,
      "zero": 7677,
      "Ġorganic": 7678,
      "ĠRun": 7679,
      "Ġattend": 7680,
      "Ġ2010": 7681,
      "Ġpoetry": 7682,
      "nection": 7683,
      "Ġproteins": 7684,
      "ester": 7685,
      "ĠCalculating": 7686,
      "ĠDivision": 7687,
      "cher": 7688,
      "Ġinstitution": 7689,
      "IM": 7690,
      "Calculate": 7691,
      "Ġmultiplied": 7692,
      "Solve": 7693,
      "ĠOnly": 7694,
      "Ġ360": 7695,
      "Do": 7696,
      "ĠPortug": 7697,
      "Ġoutbre": 7698,
      "ĠRad": 7699,
      "asters": 7700,
      "Ġremind": 7701,
      "Ġsurg": 7702,
      "ĠValley": 7703,
      "Ġmuscle": 7704,
      "Ġbone": 7705,
      "ĠPakistan": 7706,
      "Ġpaths": 7707,
      "ĠComb": 7708,
      "abs": 7709,
      "organ": 7710,
      "Ġconversation": 7711,
      "ĠSing": 7712,
      "ĠLinear": 7713,
      "geq": 7714,
      "Ġexped": 7715,
      "velength": 7716,
      "Ġadministr": 7717,
      "Ġrub": 7718,
      "Ġbalanced": 7719,
      "Ġexpectations": 7720,
      "Ġdisappe": 7721,
      "Ġprev": 7722,
      "Ġinstructions": 7723,
      "Ġcontrad": 7724,
      "client": 7725,
      "Ġ2021": 7726,
      "$:": 7727,
      "Ġsubstitution": 7728,
      "Ġmerch": 7729,
      "gest": 7730,
      "Ġassistance": 7731,
      "];": 7732,
      "ĠForce": 7733,
      "Ġunus": 7734,
      "Ġpandemic": 7735,
      "Ġopposed": 7736,
      "ĠIterate": 7737,
      "Once": 7738,
      "ĠProbability": 7739,
      "Ġrid": 7740,
      "Ġsole": 7741,
      "Ġtreatments": 7742,
      "Ġpredicted": 7743,
      "Ġboxes": 7744,
      "uther": 7745,
      "ĠBi": 7746,
      "ĠChapter": 7747,
      "ML": 7748,
      "Ġcompute": 7749,
      "91": 7750,
      "Ġdiagnosis": 7751,
      "Ġreverse": 7752,
      "Ġbranches": 7753,
      "CC": 7754,
      "Ġdense": 7755,
      "Ġattached": 7756,
      "Ġdrag": 7757,
      "abil": 7758,
      "Ġecosystems": 7759,
      "Ġhttps": 7760,
      "ĠPenn": 7761,
      "Explanation": 7762,
      "Ġreflected": 7763,
      "Ġinfant": 7764,
      "Ġ43": 7765,
      "Ġtreaty": 7766,
      "ĠRepresent": 7767,
      "umps": 7768,
      "Ġflour": 7769,
      "ffic": 7770,
      "ĠOrgan": 7771,
      "ĠChristmas": 7772,
      "Ġpeak": 7773,
      "total": 7774,
      "rine": 7775,
      "Ġpeers": 7776,
      "Ġthreats": 7777,
      "Ġbattery": 7778,
      "ĠDutch": 7779,
      "Ġnewsp": 7780,
      "Ġconstants": 7781,
      "Ġfacilities": 7782,
      "Ġinterpre": 7783,
      "\\]": 7784,
      "ĠBook": 7785,
      "ĠâĪĴ": 7786,
      "ĠOcean": 7787,
      "anda": 7788,
      "arents": 7789,
      "Ġnumpy": 7790,
      "Ġiter": 7791,
      "Ġrising": 7792,
      "Ġplease": 7793,
      "ĠEnergy": 7794,
      "Ġsongs": 7795,
      "ĠCommission": 7796,
      "Ġfashion": 7797,
      "arly": 7798,
      "Ġdivine": 7799,
      "Finally": 7800,
      "ĠDan": 7801,
      "ĠThose": 7802,
      "ĠPost": 7803,
      "Ġaccurately": 7804,
      "Ġsilver": 7805,
      "Ġdetermining": 7806,
      "umes": 7807,
      "Ġstones": 7808,
      "ĠBank": 7809,
      "ĠFol": 7810,
      "Ġuniversal": 7811,
      "current": 7812,
      "Ġtips": 7813,
      "shape": 7814,
      "Ġfocusing": 7815,
      "Ġquarter": 7816,
      "ĠOutput": 7817,
      "Ġgranted": 7818,
      "ĠNeg": 7819,
      "Ġobservation": 7820,
      "first": 7821,
      "ĠCost": 7822,
      "ĠExerc": 7823,
      "ĠFour": 7824,
      "ogether": 7825,
      "Ġleaf": 7826,
      "Ġinvasion": 7827,
      "Ġmanufacture": 7828,
      "throp": 7829,
      "ael": 7830,
      "Overall": 7831,
      "Ġorders": 7832,
      "inte": 7833,
      "Ġclosest": 7834,
      "_{\\": 7835,
      "host": 7836,
      "Ġexisted": 7837,
      "False": 7838,
      "Ġpool": 7839,
      "Ġexploring": 7840,
      "quit": 7841,
      "iginal": 7842,
      "ĠScient": 7843,
      "acu": 7844,
      "agers": 7845,
      "isher": 7846,
      "Ġcovers": 7847,
      "Ġbudget": 7848,
      "ĠProgram": 7849,
      "Ġloyal": 7850,
      "Ġstrategic": 7851,
      "ĠTreaty": 7852,
      "Ġsculpt": 7853,
      "Ġartistic": 7854,
      "operation": 7855,
      "onies": 7856,
      "Ġinher": 7857,
      "ĠAssociation": 7858,
      "ĠOtt": 7859,
      "Ġunderlying": 7860,
      "Ġsurfaces": 7861,
      "Ġwarming": 7862,
      "ĠMont": 7863,
      "Ġlifestyle": 7864,
      "Ġmanufacturing": 7865,
      "ventions": 7866,
      "Ġ1920": 7867,
      "Ġmoles": 7868,
      "edy": 7869,
      "achers": 7870,
      "Ġarts": 7871,
      "ua": 7872,
      "Or": 7873,
      "Ġbinomial": 7874,
      "Ġoperator": 7875,
      "Ġatoms": 7876,
      "ĠAsk": 7877,
      "ĠKore": 7878,
      "title": 7879,
      "Ġdynamic": 7880,
      "real": 7881,
      "Ġviruses": 7882,
      "Ġflag": 7883,
      "Ġsensitive": 7884,
      "Ġvariation": 7885,
      "erior": 7886,
      "Ġpreced": 7887,
      "ĠEmperor": 7888,
      "Ġsuffered": 7889,
      "aud": 7890,
      "ĠDynasty": 7891,
      "UT": 7892,
      "Ġcoastal": 7893,
      "ðĿĲ": 7894,
      "Ġoldest": 7895,
      "ĠDon": 7896,
      "atter": 7897,
      "Ġequilibrium": 7898,
      "Ġdeliver": 7899,
      "}-": 7900,
      "Ġconclude": 7901,
      "called": 7902,
      "numbers": 7903,
      "bes": 7904,
      "Ġopening": 7905,
      "Ġnetworks": 7906,
      "Ġlaunched": 7907,
      "ician": 7908,
      "Ġholding": 7909,
      "Ġinfluential": 7910,
      "sl": 7911,
      "ĠPublic": 7912,
      "Ġroads": 7913,
      "Ġ99": 7914,
      "Ġreflection": 7915,
      "Ġpermanent": 7916,
      "SI": 7917,
      "Ġoptimal": 7918,
      "Ġbiological": 7919,
      "ifference": 7920,
      "Ġkilog": 7921,
      "Ġfur": 7922,
      "base": 7923,
      "inity": 7924,
      "ĠDu": 7925,
      "'d": 7926,
      "Ġpoly": 7927,
      "Ġ1980": 7928,
      "names": 7929,
      "frame": 7930,
      "rypt": 7931,
      "Ġfalls": 7932,
      "Ġspending": 7933,
      "Ġtraits": 7934,
      "Ġinsert": 7935,
      "Ġviewed": 7936,
      "etch": 7937,
      "itis": 7938,
      "reshold": 7939,
      "Ġcrew": 7940,
      "aming": 7941,
      "Ġnavigate": 7942,
      "cap": 7943,
      "elihood": 7944,
      "html": 7945,
      "Ġrectangular": 7946,
      "Pe": 7947,
      "Ġconstantly": 7948,
      "Ġknowing": 7949,
      "Ġimmigrants": 7950,
      "Ġjump": 7951,
      "Ġprofessionals": 7952,
      "Ġalgorithms": 7953,
      "Ġstronger": 7954,
      "Ġbigger": 7955,
      "Ġmixture": 7956,
      "ĠJour": 7957,
      "hav": 7958,
      "ĠAmendment": 7959,
      "Ġharmful": 7960,
      "Ġdrug": 7961,
      "Ġsubstantial": 7962,
      "eless": 7963,
      "ns": 7964,
      "ĠHitler": 7965,
      "Ġ1950": 7966,
      "Ġserver": 7967,
      "fortunately": 7968,
      "Ġbases": 7969,
      "UN": 7970,
      "Ġfactorization": 7971,
      "Ġsharp": 7972,
      "Ġcomplement": 7973,
      "Ġpump": 7974,
      "Ġlists": 7975,
      "ÃĹ": 7976,
      "sm": 7977,
      "acci": 7978,
      "ogue": 7979,
      "Ġcup": 7980,
      "Ġsusp": 7981,
      "Ġconsult": 7982,
      "Ġ2014": 7983,
      "Ġmeaningful": 7984,
      "ĠViet": 7985,
      "Node": 7986,
      "Ġstead": 7987,
      "Ġpsychological": 7988,
      "ĠSubtract": 7989,
      "Even": 7990,
      "Ġappointed": 7991,
      "icing": 7992,
      "ĠEquation": 7993,
      "free": 7994,
      "Ġoverw": 7995,
      "ĠABC": 7996,
      "Type": 7997,
      "Ġparticipation": 7998,
      "random": 7999,
      "ĠUs": 8000,
      "itors": 8001,
      "rag": 8002,
      "ĠStandard": 8003,
      "Ġdinosaurs": 8004,
      "ĠSmith": 8005,
      "Ġsatisfies": 8006,
      "Ġtested": 8007,
      "Ġbabies": 8008,
      "Ġsupports": 8009,
      "}.": 8010,
      "umin": 8011,
      "Ġdioxide": 8012,
      "olds": 8013,
      "Ġelectron": 8014,
      "Ġsequences": 8015,
      "ĠPalest": 8016,
      "ented": 8017,
      "kin": 8018,
      "Ġegg": 8019,
      "othe": 8020,
      "Ġruler": 8021,
      "zen": 8022,
      "Ġdemonstrated": 8023,
      "ĠJoseph": 8024,
      "Ġshop": 8025,
      "Ġtf": 8026,
      "roph": 8027,
      "ini": 8028,
      "ala": 8029,
      "lib": 8030,
      "Ġexecutive": 8031,
      "\\),": 8032,
      "Ġath": 8033,
      "div": 8034,
      "Ġbag": 8035,
      "Ġtransmission": 8036,
      "Ġphenomenon": 8037,
      "fare": 8038,
      "Ġmarried": 8039,
      "Ġnit": 8040,
      "ĠBur": 8041,
      "Ġworkshe": 8042,
      "Ġprocedure": 8043,
      "Ġovercome": 8044,
      "json": 8045,
      "ook": 8046,
      "Ġdrugs": 8047,
      "Ġcomputers": 8048,
      "Ġphone": 8049,
      "Ġdeaths": 8050,
      "Ġissued": 8051,
      "ĠService": 8052,
      "Ġ\\)": 8053,
      "Ġmos": 8054,
      "Ġpages": 8055,
      "ittle": 8056,
      "ona": 8057,
      "ĠHT": 8058,
      "ĠThough": 8059,
      "assert": 8060,
      "Ġinsight": 8061,
      "ensus": 8062,
      "Ġimmun": 8063,
      "ĠAPI": 8064,
      "Ġdatetime": 8065,
      "born": 8066,
      "olt": 8067,
      "Ġactively": 8068,
      "ĠFrancis": 8069,
      "LO": 8070,
      "Ġdefinite": 8071,
      "Ġcarrying": 8072,
      "Ġopposition": 8073,
      "eem": 8074,
      "claim": 8075,
      "rooms": 8076,
      "Ġexponent": 8077,
      "itical": 8078,
      "Ġsubset": 8079,
      "0000000000000000": 8080,
      "Ġcone": 8081,
      ".âĢĻ": 8082,
      "Ġcommission": 8083,
      "Ġfab": 8084,
      "hematic": 8085,
      "Ġenable": 8086,
      "Ġtons": 8087,
      "Ġlogical": 8088,
      "Ġvessels": 8089,
      "det": 8090,
      "Ġcoun": 8091,
      "Ġflying": 8092,
      "Ġprem": 8093,
      "Ġdimension": 8094,
      "Ġinclusive": 8095,
      "Ġdaughter": 8096,
      "ĠEquations": 8097,
      "ĠPan": 8098,
      "Ġelections": 8099,
      "Ġreader": 8100,
      "ellion": 8101,
      "Ġstem": 8102,
      "Ġmarginal": 8103,
      "CF": 8104,
      "SON": 8105,
      "Ġdust": 8106,
      "antine": 8107,
      "Ġadds": 8108,
      "Ġresponses": 8109,
      "Ġdominant": 8110,
      "Consider": 8111,
      "Ġaccessible": 8112,
      "Ġbiggest": 8113,
      "epsilon": 8114,
      "Ġblog": 8115,
      "ĠAlexander": 8116,
      "Ġtoken": 8117,
      "status": 8118,
      "Ġchick": 8119,
      "Ġdisrupt": 8120,
      ")!": 8121,
      "ĠGroup": 8122,
      "Ġdt": 8123,
      "Ġvegetation": 8124,
      "olves": 8125,
      "ĠRule": 8126,
      "Ġlinks": 8127,
      "Set": 8128,
      "plom": 8129,
      "Ġphrase": 8130,
      "Ġartist": 8131,
      "Ġdiscount": 8132,
      "Ġstatistical": 8133,
      "Ġhence": 8134,
      "ĠSqu": 8135,
      "Ġahead": 8136,
      "ĠPath": 8137,
      "Ġcharges": 8138,
      "Ġflows": 8139,
      "Ġempath": 8140,
      "Ass": 8141,
      "ĠYet": 8142,
      "07": 8143,
      "Ġlosses": 8144,
      "sey": 8145,
      "Ġunity": 8146,
      "Ġunless": 8147,
      "ĠProperties": 8148,
      "Ġreactions": 8149,
      "Ġbroader": 8150,
      "Ġroughly": 8151,
      "Ġdevast": 8152,
      "ums": 8153,
      "ĠPri": 8154,
      "page": 8155,
      "ĠFurthermore": 8156,
      "Ġdriven": 8157,
      "Ġstrike": 8158,
      "Ġhappening": 8159,
      "Ġrememb": 8160,
      "Ġvegetables": 8161,
      "Ġdistrict": 8162,
      "Ġroutine": 8163,
      "Ġpurchase": 8164,
      "ĠTor": 8165,
      "Ġoccupied": 8166,
      "Ġchemicals": 8167,
      "ki": 8168,
      "Ġcotton": 8169,
      "ĠProblems": 8170,
      "Ġseemed": 8171,
      "Ġarrest": 8172,
      "Ġsymmetry": 8173,
      "Ġtrip": 8174,
      "alid": 8175,
      "Ġnewly": 8176,
      "Ġoccasion": 8177,
      "Ġswitch": 8178,
      "ĠAcad": 8179,
      "Ġselling": 8180,
      "ima": 8181,
      "Ġserving": 8182,
      "ffe": 8183,
      "mm": 8184,
      "ĠMoreover": 8185,
      "Ġscene": 8186,
      "Ġcolleagues": 8187,
      "UM": 8188,
      "Ġlibrary": 8189,
      "oded": 8190,
      "Ġcurrency": 8191,
      "pmatrix": 8192,
      "Ġspan": 8193,
      "Ġdecade": 8194,
      "Ġliterary": 8195,
      "Ġpropos": 8196,
      "Ġsettled": 8197,
      "dule": 8198,
      "ĠQueen": 8199,
      "Ġforming": 8200,
      "Ġessentially": 8201,
      "ĠEv": 8202,
      "Ġseparated": 8203,
      "ogen": 8204,
      "ĠDev": 8205,
      "Ġpasseng": 8206,
      "Ġdemocratic": 8207,
      "irty": 8208,
      "Hist": 8209,
      "Ġliteracy": 8210,
      "Use": 8211,
      "Ġbias": 8212,
      "esh": 8213,
      "Ġframework": 8214,
      "ĠMexican": 8215,
      "onomy": 8216,
      "09": 8217,
      "ĠBrown": 8218,
      "Ġmanif": 8219,
      "Ġpredictions": 8220,
      "Ġdefeat": 8221,
      "Ġprosper": 8222,
      "product": 8223,
      "onacci": 8224,
      "ading": 8225,
      "Ġidentifying": 8226,
      ",\\": 8227,
      "âĪĴ": 8228,
      "ĠScotland": 8229,
      "ĠMr": 8230,
      "Ġroutes": 8231,
      "Ġgrad": 8232,
      "Ġdrinking": 8233,
      "wind": 8234,
      "Ġrequests": 8235,
      "Ġwriters": 8236,
      "ĠTriangle": 8237,
      "Ġmuscles": 8238,
      "osaur": 8239,
      "Ġdot": 8240,
      "Ġdiver": 8241,
      "Ġrod": 8242,
      "ĠProduct": 8243,
      "Ġglac": 8244,
      "Ġcouple": 8245,
      "Ġsovere": 8246,
      "ĠNon": 8247,
      "lights": 8248,
      "zed": 8249,
      "ĠFood": 8250,
      "Ġdrink": 8251,
      "Ġreaching": 8252,
      "PA": 8253,
      "abeth": 8254,
      "Ġassigned": 8255,
      "ĠBetween": 8256,
      "ĠMet": 8257,
      "Ġsimultane": 8258,
      "Ġemergency": 8259,
      "Ġwalking": 8260,
      "Ġsine": 8261,
      "Ġethical": 8262,
      "ĠHan": 8263,
      "onial": 8264,
      "Ġsampl": 8265,
      "Today": 8266,
      "ĠEnvironment": 8267,
      "wa": 8268,
      "ĊĊĠĠĠĠĠĠĠĠĠĠĠ": 8269,
      "Delta": 8270,
      "fix": 8271,
      "ĠVis": 8272,
      "Ġsemi": 8273,
      "zil": 8274,
      "ĠDistance": 8275,
      "Ġregarded": 8276,
      "ĠJeff": 8277,
      "ĠVik": 8278,
      "Ġcomposite": 8279,
      "Ġemphasis": 8280,
      "Ġexercises": 8281,
      "ĠWhere": 8282,
      "Ġgar": 8283,
      "ĠWood": 8284,
      "rog": 8285,
      "Ġcomplicated": 8286,
      "endar": 8287,
      "Read": 8288,
      "Ġdocuments": 8289,
      "ĠBasic": 8290,
      "ĠRetrie": 8291,
      "Ġbatch": 8292,
      "ĠMong": 8293,
      "Ġwavelength": 8294,
      "Ġexamine": 8295,
      "ĠSwed": 8296,
      "Ġrefused": 8297,
      "Ġbattles": 8298,
      "Ġdemands": 8299,
      "}}\\": 8300,
      "Ġell": 8301,
      "Ġcond": 8302,
      "Ġoperating": 8303,
      "ĠBig": 8304,
      "Ġreflects": 8305,
      "Ġ110": 8306,
      "Ġworse": 8307,
      "Ġadequ": 8308,
      "Ġreaches": 8309,
      "Ġlisted": 8310,
      "Ġargue": 8311,
      "Ġconfident": 8312,
      "ĠGeorg": 8313,
      "amily": 8314,
      "Next": 8315,
      "ocial": 8316,
      "cope": 8317,
      "ĠInterest": 8318,
      "ĠWrit": 8319,
      "Ġachievement": 8320,
      "Ġcharged": 8321,
      "Ġhex": 8322,
      "Ġfulf": 8323,
      "Ġcareful": 8324,
      "Ġgiant": 8325,
      "item": 8326,
      "forward": 8327,
      "Ġhospital": 8328,
      "Ġoverwhel": 8329,
      "Ġroof": 8330,
      "pack": 8331,
      "delta": 8332,
      "Ġsteam": 8333,
      "Ġmeter": 8334,
      "ĠVictor": 8335,
      "Ġparab": 8336,
      "oto": 8337,
      "Ġquadr": 8338,
      "ĠBefore": 8339,
      "Ġampl": 8340,
      "apse": 8341,
      "Ġcommitted": 8342,
      "ĠDen": 8343,
      "Ġmountains": 8344,
      "Ġcutting": 8345,
      "ING": 8346,
      "Äģ": 8347,
      "ĠCast": 8348,
      "Ġmask": 8349,
      "ussian": 8350,
      "ĠInitializes": 8351,
      "ĠAbout": 8352,
      "ĠChild": 8353,
      "ciences": 8354,
      "ĠWithout": 8355,
      "ĠMathemat": 8356,
      "'),": 8357,
      "Ġprotest": 8358,
      "method": 8359,
      "Ġancestors": 8360,
      "Ġregional": 8361,
      "Ġaccommod": 8362,
      "annels": 8363,
      "Ġadvantages": 8364,
      "keys": 8365,
      "Ġsnake": 8366,
      "ĠTer": 8367,
      "Ġfunding": 8368,
      "Ġremote": 8369,
      "Ġpreserve": 8370,
      "irt": 8371,
      "ĠLength": 8372,
      "Ġshorter": 8373,
      "Ġmotivation": 8374,
      "IL": 8375,
      "Ġdriver": 8376,
      "Ġ2013": 8377,
      "Ġ85": 8378,
      "Ġretrie": 8379,
      "Ġfertil": 8380,
      "Ġastero": 8381,
      "ĠBill": 8382,
      "Ġcopper": 8383,
      "ĠGenerate": 8384,
      "Ġemotion": 8385,
      "Ġenth": 8386,
      "ĠâĪ«[": 8387,
      "lobal": 8388,
      "ĠGood": 8389,
      "wargs": 8390,
      "Ġdollars": 8391,
      "Ġjudge": 8392,
      "Ġchronic": 8393,
      "Ġmoist": 8394,
      "Cont": 8395,
      "Ġtechnical": 8396,
      "issipp": 8397,
      "cycl": 8398,
      "Ġstrings": 8399,
      "Ġbits": 8400,
      "achus": 8401,
      "Ġ63": 8402,
      "Ġdance": 8403,
      "ĠJac": 8404,
      "Ġmaintained": 8405,
      "rowing": 8406,
      "Ġoccurring": 8407,
      "Ġtransformed": 8408,
      "Ġeleph": 8409,
      "Ġdistinctive": 8410,
      "Ġjson": 8411,
      "everal": 8412,
      "Ġtensor": 8413,
      "irus": 8414,
      "hedule": 8415,
      "ĠColor": 8416,
      "Ġthreatened": 8417,
      "iah": 8418,
      "Ġcompass": 8419,
      "employ": 8420,
      "Ġbreast": 8421,
      "ĠSud": 8422,
      "Ġbringing": 8423,
      "Ġratios": 8424,
      "PR": 8425,
      "sim": 8426,
      "Ġspin": 8427,
      "âĤĤ": 8428,
      "Ġcorpor": 8429,
      "edge": 8430,
      "[:": 8431,
      "Ġsyndrome": 8432,
      "izabeth": 8433,
      "Ġtooth": 8434,
      "Ġ47": 8435,
      "that": 8436,
      "Ġspecialized": 8437,
      "icy": 8438,
      "Ġbeings": 8439,
      "Ġmit": 8440,
      "}=": 8441,
      "column": 8442,
      "Ġdirected": 8443,
      "Ġdealing": 8444,
      "hyd": 8445,
      "Ġscenario": 8446,
      "anta": 8447,
      "reet": 8448,
      "Ġupdated": 8449,
      "EL": 8450,
      "lets": 8451,
      "Ġenslaved": 8452,
      "Ġfever": 8453,
      ")|": 8454,
      "Ġsup": 8455,
      "Ġcomfortable": 8456,
      "ĠLess": 8457,
      "Ġshot": 8458,
      "Ġinstall": 8459,
      "Ġmechanism": 8460,
      "Ġoun": 8461,
      "ĠOrder": 8462,
      "Am": 8463,
      "ĠCommit": 8464,
      "Ġmodule": 8465,
      "Ġharsh": 8466,
      "Ġmarkets": 8467,
      "(),": 8468,
      "onia": 8469,
      "Ġfrequent": 8470,
      "Additionally": 8471,
      "century": 8472,
      "itory": 8473,
      "Ġhier": 8474,
      "Ġdiffer": 8475,
      "Ġ800": 8476,
      "600": 8477,
      "esar": 8478,
      "Ġnurs": 8479,
      "Ġsquared": 8480,
      "opol": 8481,
      "Out": 8482,
      "Ġlots": 8483,
      "aked": 8484,
      "Ġreliable": 8485,
      "Form": 8486,
      "ponent": 8487,
      "Ġpaintings": 8488,
      "ĠAcc": 8489,
      "Ġdecreases": 8490,
      "ths": 8491,
      "800": 8492,
      "Ġrecognizing": 8493,
      "ĠÐ": 8494,
      "Ġil": 8495,
      "ranging": 8496,
      "Ġdepart": 8497,
      "Ġlake": 8498,
      "Ġmanaging": 8499,
      "Ġclassified": 8500,
      "Ġhypotenuse": 8501,
      "Ġpolygon": 8502,
      "car": 8503,
      "ĠExtract": 8504,
      "Ġ2022": 8505,
      "such": 8506,
      "Ġkings": 8507,
      "Ġargs": 8508,
      "Ġ2012": 8509,
      "Ã¼": 8510,
      "Ġdice": 8511,
      "Ġrhyth": 8512,
      "jective": 8513,
      "ĠMes": 8514,
      "Ġdynasty": 8515,
      "ĠComplex": 8516,
      "Ġholiday": 8517,
      "Ġcentimeters": 8518,
      "ĠWell": 8519,
      "Thus": 8520,
      "Ġtub": 8521,
      "Ġproven": 8522,
      "Ġcrow": 8523,
      "ĠDecl": 8524,
      "ĠAz": 8525,
      "ker": 8526,
      "Ġinfl": 8527,
      "Ġtheme": 8528,
      "csv": 8529,
      "width": 8530,
      "shaped": 8531,
      "brew": 8532,
      "Ġoverl": 8533,
      "Ġsnakes": 8534,
      "ĠRh": 8535,
      "clude": 8536,
      "Ġracism": 8537,
      "Ġgone": 8538,
      "Ġvoting": 8539,
      "Ġchoosing": 8540,
      "just": 8541,
      "ĠRat": 8542,
      "ibonacci": 8543,
      "ĠPass": 8544,
      "Le": 8545,
      "Ġvent": 8546,
      "Ġcontinent": 8547,
      "Ġcrime": 8548,
      "Ġmasses": 8549,
      "Ġresolution": 8550,
      "Ġremoving": 8551,
      "di": 8552,
      "Ġintroduce": 8553,
      "AG": 8554,
      "Ġhistorians": 8555,
      "ĠGermans": 8556,
      "ĠSimilarly": 8557,
      "Ġcelebrate": 8558,
      "Ġdifferently": 8559,
      "Ġinputs": 8560,
      "Ġcombine": 8561,
      "Ġguard": 8562,
      "case": 8563,
      "Ġborrow": 8564,
      "erge": 8565,
      "ĠAnaly": 8566,
      "Ġ2011": 8567,
      "Add": 8568,
      "Ġrulers": 8569,
      "Ġma": 8570,
      "umental": 8571,
      "Ġcompr": 8572,
      "ranean": 8573,
      "ĠKorea": 8574,
      "Ġalgebraic": 8575,
      "Ġneutral": 8576,
      "Ġ81": 8577,
      "anding": 8578,
      "Ġvaries": 8579,
      "Ġtravels": 8580,
      "Ġdisability": 8581,
      "Ġrevers": 8582,
      "ĠYes": 8583,
      "Ġtum": 8584,
      "Co": 8585,
      "Ġoral": 8586,
      "Ġwider": 8587,
      "Ġbreaking": 8588,
      "Ġdistur": 8589,
      "Ġhumanity": 8590,
      "Ġdiscussions": 8591,
      "iture": 8592,
      "ĠExpress": 8593,
      "mol": 8594,
      "Ġintric": 8595,
      "Ġteen": 8596,
      "atom": 8597,
      "ĠAnswer": 8598,
      "ĠMississipp": 8599,
      "uity": 8600,
      "Ġfires": 8601,
      "Ġassumed": 8602,
      "Ġtraffic": 8603,
      "Ġrecovery": 8604,
      "Ġcomparing": 8605,
      "pace": 8606,
      "lements": 8607,
      "Ġsensory": 8608,
      "Ġlic": 8609,
      "ĠRichard": 8610,
      "Ġcircumference": 8611,
      "Ġchannel": 8612,
      "theless": 8613,
      "Ġsupposed": 8614,
      "Ġdefeated": 8615,
      "Ġprohib": 8616,
      "Ġspectrum": 8617,
      "otics": 8618,
      "Ġcircul": 8619,
      "ĠBro": 8620,
      "Ġ$|": 8621,
      "Ġinequalities": 8622,
      "uh": 8623,
      "ĠChristians": 8624,
      "ĠIndependence": 8625,
      "ĠHindu": 8626,
      "herent": 8627,
      "mic": 8628,
      "\"{": 8629,
      "Ġarbit": 8630,
      "Ġmechanical": 8631,
      "Ġcongruent": 8632,
      "argets": 8633,
      "Ġbonds": 8634,
      "var": 8635,
      "Ġhusband": 8636,
      "Ġearned": 8637,
      "content": 8638,
      "Ġteams": 8639,
      "'],": 8640,
      "Ġestablishing": 8641,
      "Ġvaccines": 8642,
      "irs": 8643,
      "Ġmigr": 8644,
      "ĠReview": 8645,
      "Ġquotient": 8646,
      "phone": 8647,
      "iana": 8648,
      "under": 8649,
      "Ġ1930": 8650,
      "Â°.": 8651,
      "Divide": 8652,
      "IG": 8653,
      "Ġresid": 8654,
      "Ġestimates": 8655,
      "Ġderivatives": 8656,
      "itative": 8657,
      "Ġdb": 8658,
      "umer": 8659,
      "Ġclot": 8660,
      "Test": 8661,
      "roach": 8662,
      "ĠFlor": 8663,
      "ĠNazi": 8664,
      "Reg": 8665,
      "Ġduty": 8666,
      "Man": 8667,
      "next": 8668,
      "ĠAsian": 8669,
      "Ġbreathing": 8670,
      "ÃŃ": 8671,
      "Ġengagement": 8672,
      "find": 8673,
      "Ġprotecting": 8674,
      "Ġcleaned": 8675,
      "Ġsuffer": 8676,
      "Ġidentical": 8677,
      "Ġelectrons": 8678,
      "ĠExper": 8679,
      "Ġliters": 8680,
      "imental": 8681,
      "ested": 8682,
      "ĠTuple": 8683,
      "ĠPop": 8684,
      "Ġasc": 8685,
      "ĠDisc": 8686,
      "inate": 8687,
      "Ġcrim": 8688,
      "ĠPlot": 8689,
      "ĊĠĠĠĠĠĠĠĠĠĠĠĠĠĠĠĠĠĠĠĠĠĠĠ": 8690,
      "Ġ46": 8691,
      "illa": 8692,
      "ĠLab": 8693,
      "Ġversions": 8694,
      "Ġpreval": 8695,
      "Ġwarri": 8696,
      "Ġhaz": 8697,
      "Ġintensity": 8698,
      "Ġmodified": 8699,
      "response": 8700,
      "Ġanalyzing": 8701,
      "Ġadm": 8702,
      "Ġthanks": 8703,
      "Ġthread": 8704,
      "ponse": 8705,
      "Ġarrival": 8706,
      "Ġzeros": 8707,
      "ilation": 8708,
      "contin": 8709,
      "Ġexperiencing": 8710,
      "power": 8711,
      "->": 8712,
      "Ġfishing": 8713,
      "========": 8714,
      "Ġdiplom": 8715,
      "Ġwait": 8716,
      "Ġourselves": 8717,
      "Ġdecom": 8718,
      "Ġadoles": 8719,
      "ackson": 8720,
      "HO": 8721,
      "etts": 8722,
      "Ġinert": 8723,
      "Mat": 8724,
      "ql": 8725,
      "Ġcollaboration": 8726,
      "120": 8727,
      "Ġinfluences": 8728,
      "opher": 8729,
      "Ġrecycl": 8730,
      "ĠYoung": 8731,
      "Ġbarriers": 8732,
      "ENT": 8733,
      "Ġtherap": 8734,
      "Ġlens": 8735,
      "ĠProtest": 8736,
      "Ġputting": 8737,
      "ĠChange": 8738,
      "urches": 8739,
      "Ġdecay": 8740,
      "Ġevident": 8741,
      "Ġ2008": 8742,
      "Ġdivisor": 8743,
      "Ġeld": 8744,
      "Ġbears": 8745,
      "DP": 8746,
      "Ġarranged": 8747,
      "ĠâĪĳ": 8748,
      "UL": 8749,
      "Ġenorm": 8750,
      "Ġcandidate": 8751,
      "Ġsuperior": 8752,
      "ĠNature": 8753,
      "ĠModern": 8754,
      "igned": 8755,
      "Ġplanned": 8756,
      "ĠHIV": 8757,
      "ĠĊĠĠĠĠĠĠĠ": 8758,
      "Ġcv": 8759,
      "ounce": 8760,
      "ĠÏī": 8761,
      "acles": 8762,
      "cover": 8763,
      "Understanding": 8764,
      "mult": 8765,
      "Integ": 8766,
      "lt": 8767,
      "ĠJul": 8768,
      "Ġzone": 8769,
      "Ġoutdo": 8770,
      "Ġrituals": 8771,
      "Ġconven": 8772,
      "Ġmood": 8773,
      "ĠPi": 8774,
      "ceptions": 8775,
      "Ġspoken": 8776,
      "advant": 8777,
      "Ã¶": 8778,
      "ĠAnalysis": 8779,
      "ĠPeter": 8780,
      "Ġ>=": 8781,
      "/âĪĤ": 8782,
      "ĠEnc": 8783,
      "Ġconstraints": 8784,
      "Ġconstitutional": 8785,
      "usalem": 8786,
      "Ġamaz": 8787,
      "Ġloan": 8788,
      "Ġextension": 8789,
      "Ġhoney": 8790,
      "Ġmining": 8791,
      "oured": 8792,
      "Ġpartner": 8793,
      "Ġvaried": 8794,
      "Ġqueue": 8795,
      "ĠCat": 8796,
      "learn": 8797,
      "linear": 8798,
      "ani": 8799,
      "Ġdjango": 8800,
      "osh": 8801,
      "Ġfeathers": 8802,
      "Ġ1800": 8803,
      "dr": 8804,
      "Ġtraveling": 8805,
      "Ġconscious": 8806,
      "Ġurl": 8807,
      "Ġstere": 8808,
      "adel": 8809,
      "Ġlatest": 8810,
      "Ġnerv": 8811,
      "US": 8812,
      "Ġprinting": 8813,
      "âĤģ": 8814,
      "Ġilleg": 8815,
      "ĠDer": 8816,
      "Further": 8817,
      "Ġintegrate": 8818,
      "Ġextend": 8819,
      "âĪļ(": 8820,
      "Ġrender": 8821,
      "ivered": 8822,
      "âĪŀ": 8823,
[...]
